#version: 0.2
Ġ Ġ
ĠĠ ĠĠ
ĠĠĠĠ ĠĠĠĠ
ĠĠ Ġ
i n
e r
o n
r e
a t
s t
e n
Ġ t
o r
ĉ ĉ
l e
Ċ ĠĠĠĠ
s e
Ġ =
a n
Ċ ĠĠĠĠĠĠĠĠ
a l
d e
Ġ c
a r
) ;
i on
Ċ ĠĠĠ
- -
i t
Ġ *
c t
h e
s s
m e
ĊĠĠĠĠ ĠĠĠ
* *
Ġ {
g e
r o
< /
Ġ (
i s
i c
Ġ f
u r
l a
= "
Ġ p
/ /
in g
i f
Ċ ĉĉ
en t
c e
u n
Ċ ĉ
u t
Ġ <
Ċ Ġ
i d
Ġ n
Ġ s
Ġ a
l o
Ġ 0
e d
Ġ re
Ġ b
Ġt he
- >
Ġ "
Ġ }
t r
c o
p e
m p
0 0
Ġ in
e x
a d
a me
u e
ĊĠĠĠĠĠĠĠĠ ĠĠĠ
-- --
at e
= =
Ġ o
l i
" >
u l
t h
c k
i g
i l
e l
Ġ m
( )
Ġ v
i v
la ss
st r
Ġ w
Ġ '
Ġ d
ur n
ĠĠĠĠĠĠĠĠ ĠĠĠĠĠĠĠĠ
at ion
t urn
ĠĠĠĠ ĠĠĠ
c h
** **
ge t
s p
p t
o t
h t
o l
Ġ S
a ge
e t
ct ion
y pe
a b
in t
u b
Ġt h
on t
e s
a p
an d
u m
Ġ if
Ġ $
Ġc lass
ĊĠĠĠĠ Ġ
u s
Ġ 1
Ġ C
Ġ h
se t
Ġt o
ex t
I n
Ġ T
a s
de f
in e
or t
e w
a m
o de
" ,
R e
Ġ A
Ġ* /
ĊĠĠĠĠĠĠĠĠ ĠĠĠĠĠĠĠ
at a
en d
. .
Ċ Ċ
i le
u p
Ġ //
t er
l ic
: :
e ct
i z
ĊĠĠĠĠĠĠĠĠ ĠĠĠĠĠĠĠĠ
t o
e m
r a
---- ----
r i
ab le
o d
Ġre turn
Ġo f
' ,
I N
Ġ -
al ue
a v
Ġ &
== ==
v er
Ċĉĉ ĉĉ
Ġ st
Ġ P
a se
( "
f f
Ġ is
E R
Ġf or
o ur
q u
pt ion
Ġ @
Ċ ĊĠĠĠ
o w
ul t
/ *
Ġ +
a ck
c on
( );
o m
Ġ i
**** ****
re f
Ġth is
i st
al l
.. /
m ent
Ġ l
) )
Ġ e
o p
Ċĉĉ ĉ
t e
iz e
Ġ N
d er
er t
O N
Ġ L
i r
un ction
Ġ 2
our ce
f o
Ġc on
R E
d iv
č Ċ
_ _
m l
t d
Ġ </
Ġ se
Ġ D
Ġ F
Ġ M
s c
n ame
k e
j ect
ub lic
u ct
sp an
i m
> </
Ġ g
an s
er s
) ,
it h
Ġ .
or m
ĊĠĠĠĠĠĠĠĠ ĠĠĠĠĠĠĠĠĠĠĠĠĠĠĠĠ
a c
p ar
re turn
o id
Ġ I
> <
# #
Ġ G
( '
Ġ and
Ġ [
ss age
ig ht
l f
i b
th is
str uct
Ġ de
er r
tr ing
E x
O R
l u
Ġ r
Ġ :
i me
n t
ht ml
S t
S T
o s
Ġ or
ar t
p ut
re s
E N
o c
Ġ= =
p ro
Ġb e
d d
Ġ B
ul l
ig n
Ġ= >
a in
a re
Ġt r
ĊĠĠĠĠĠĠĠĠĠĠĠĠĠĠĠĠ ĠĠĠ
Ġh ref
i mp
u se
Ġn ew
lo ck
Ġin t
Ġ !
o ut
b ject
co de
e st
a g
Ġ |
t ype
Ġp ro
ĠĠĠĠ Ġ
../ ../
at ic
A T
in d
Ġ #
A R
ad d
lo c
a ct
me ssage
q ue
at h
t p
str ing
A L
o un
Ġ ex
Ġ it
T ype
ar g
Ġf unction
Ġ on
o o
l y
Ġ /
Ġ O
00 00
3 2
N ame
ro m
d ata
el se
ra y
de x
ic e
v ent
s ource
b u
I T
s er
a ce
-------- --------
Ċ ĊĠĠĠĠĠĠĠ
U L
co m
co l
S E
it y
def ine
) .
la y
u re
i al
i p
imp ort
Ġ W
i re
D E
Ġ >
f orm
f t
li st
c ont
ro w
Ġc h
p r
0 1
Ċ ĊĠ
Ġ E
m a
Ġ un
al se
Ċ ĠĠ
v e
==== ====
it e
f ig
s h
Ġp ublic
Ġn ame
l l
Ġ _
par am
ĊĠĠĠĠĠĠĠĠ Ġ
Ġ )
ke y
iv e
p x
P ro
) );
" );
a y
p er
tr ans
Ġv oid
o mp
on e
Ġ U
Ġt ype
S tring
L E
it ion
p ort
Ġn ot
Ġ an
de v
// //
en se
i el
an ce
le ment
ht tp
Ġ H
c lu
iel d
D e
in k
Ġv alue
Ġc ont
A N
o st
Ġw ith
Ġ get
Ġ y
******** ********
C on
ri pt
Ġ j
Ġcon st
b o
I D
re e
Ġse lf
( $
ar y
Ġ else
clu de
m o
I d
Ġ /*
Ġ def
ce ss
or y
p p
Ġv ar
or d
re ss
C ont
que st
v al
lo g
ib ut
i o
Ġ R
Ġ& &
Ġ V
en er
L ist
Ġ %
' ]
a ult
S S
b er
Ġw h
o re
at or
"> <
an ge
i ew
C T
s ize
p h
a k
: //
an t
l ation
Ġ al
a ss
Ġ set
g ro
it le
err or
on g
he ck
u le
us er
il d
en g
c lass
Ċĉĉĉĉ ĉĉ
Ġb y
T o
Ġd ata
ac he
E n
i x
lo w
f ile
Ġ! =
Ġn ull
re ad
Ġ me
at ch
r c
v alue
Ġ \
re ate
Ġ 3
an g
[ '
Ġf alse
o int
a il
v ar
čĊ č
Ġ Re
ap p
il l
at ed
trans lation
S e
n b
Ġth at
i es
y le
l ine
UL L
1 0
id th
Ġa s
ce ption
ĊĠĠĠĠĠĠĠĠĠĠĠĠĠĠĠĠ ĠĠĠĠĠĠĠ
Ġ id
ar ray
Ġtr ue
Ġf ile
i de
le ct
1 2
m s
a x
1 6
M E
ĠĠĠĠ ĠĠ
a mp
d ate
r r
} ,
Ġ use
ad er
st atic
ic ense
V alue
v ice
um ent
in clude
r iv
ur re
M A
nb sp
th od
or k
ar d
] ,
Ġs h
Ġ );
la b
eng th
Ġ In
ĠT he
o g
T R
Ġd o
Ġ `
er y
ode l
I C
o u
C h
D ata
t ext
" ;
un d
C O
) :
as k
u st
b ack
p ert
g s
w w
Ġ 4
/ >
č ĊĠĠĠ
at us
U T
6 4
" :
## ##
] ;
v oid
un t
a st
ĠL icense
o f
č ĊĠĠĠĠĠĠĠ
g r
urre nt
pe c
" )
Ġf rom
b e
ption s
se lf
Ċ Ċĉ
Ġ} ,
P E
1 1
Ġl ine
m d
F F
Ġre s
S et
j s
C H
Ġ at
in fo
in al
s ign
r ight
Ċĉĉĉĉ ĉ
Ġ| |
en s
Ġ __
Ex ception
Ġ( !
n ew
' )
A r
Ġ x
av e
Ġ u
ar ch
li ent
en ce
rr or
or der
ĠN ULL
č Ċĉ
um ber
y st
L A
ow n
b r
R O
Ġc ol
e c
re ak
I ON
sp on
p re
+ +
Ġ/ **
G et
ar get
le t
C ol
"> </
r ame
is p
e b
Ġ ?
r y
M e
yst em
Ġ end
Ġ string
ff er
' );
I G
in dex
r ite
lo ad
A D
l ink
loc ation
Ġ --
oun d
a ch
" />
] .
t y
0 2
O bject
m in
Ġc om
op y
L O
n e
m it
t able
st ance
to p
g er
o b
co mp
() .
oun t
sc ript
Ġ 5
qu al
h is
Ġs o
con st
Ġp ar
ss ion
o ul
/ **
R es
Ġc ase
d i
o ol
tr ibut
od ule
ĊĠĠĠĠĠĠĠĠ ĠĠĠĠĠ
f or
P ar
() );
oul d
E rror
he d
y n
Ġch ar
Ġa re
it em
S er
re g
s o
ĠS tring
er e
K e
P I
re am
Ġst atic
( &
le ft
ers ion
Ġ k
av a
if i
an n
Ġa dd
p ublic
t on
e mp
f unction
or g
F ile
n av
Ġs ize
Ke y
. _
ut ton
Ġ< <
te st
Ġc omp
IN T
ss ert
t ime
B u
le an
m ap
th er
Ġ array
m b
Ġ he
() ,
G E
pe ct
l ate
//// ////
ur l
A B
spon se
il ter
as h
qu ire
sign ed
e e
' :
= '
co unt
Ġo ut
are nt
I S
A C
Ġi mp
' ;
ut h
riv ate
t em
Ġt est
ir st
pert y
sp ace
s ub
ind ow
======== ========
b ar
Ġ Q
} ;
Ġw e
2 5
00 0
Ġb u
3 3
Ġ li
f ace
S c
T est
T E
ĊĠĠĠĠĠĠĠĠĠĠĠĠĠĠĠĠĠĠĠĠĠĠĠĠ ĠĠĠĠĠĠĠĠ
m ary
p ath
Ġ en
t ing
ame ter
od y
T r
g in
Ġ struct
Ġc an
er n
U R
c l
---------------- ----------------
un c
ĉĉ ĉĉ
m and
Ġor g
con fig
U N
de d
u d
os ition
U n
Ġres ult
2 0
c p
ĠT his
IN G
c cess
Ġp rivate
g le
E vent
C omp
N ode
In fo
w ork
n d
I tem
Ġ J
lab el
M P
Ġw ill
gro up
u al
s um
9 9
T ime
Ġs c
l ength
lo at
o ver
Ġ list
() )
isp lay
Ġ// /
b lock
col or
pr int
r ap
A t
f er
w are
e p
i str
Ċ ĊĠĠĠĠĠĠĠĠĠĠĠ
ic on
mo ve
T Y
1 5
if y
oc ument
p ack
en u
in put
! --
I L
ut il
Ġ error
ĊĠĠĠĠĠĠĠĠĠĠĠĠĠĠĠĠĠĠĠĠĠĠĠĠ ĠĠĠ
gro und
c c
r it
a ction
ro up
st ate
č ĊĠĠĠĠĠĠĠĠĠĠĠ
ro ll
le te
l er
um n
T ext
n ode
d b
and le
ĠĠĠĠĠĠĠĠĠĠĠĠĠĠĠĠ ĠĠĠĠĠĠĠĠĠĠĠĠĠĠĠĠ
St ate
Ġ up
ro l
fo re
se s
l en
Ġy ou
t a
p age
v el
B y
E D
T H
Ġ key
Ġ arg
Ġv al
ph p
ar k
[ ]
in it
m i
if ic
Ġ( (
EN T
=" ../../
C lass
on ent
Ġo bject
u i
la gs
st art
amp le
la st
U S
Ġ 8
A dd
E lement
le ction
ter n
. </
" "
ation s
Ġ all
v iew
t itle
ire ct
b t
b ase
1 4
E S
p en
s k
bu f
c ase
n o
**************** ****************
Ġt itle
In dex
o ff
M ap
f ield
end if
a ke
w idth
ut e
a le
A S
k en
oo lean
1 8
ect or
O T
p s
se d
qu ery
tr y
m age
sc ri
ub le
e vent
y s
d o
it s
me m
us h
* /
im age
in ed
Ġb ack
6 6
us ing
n ot
ag er
Ġf inal
Ġa ssert
C ON
ER R
re t
D I
res ult
V iew
st yle
Ġcont ent
w ord
http s
Ġ-- >
ain er
ch ar
Ġ+ =
qu ot
( (
i a
S h
ic k
la ce
Ġ str
ft ware
C E
bo x
i e
a f
0 4
ĊĠĠĠĠĠĠĠĠ ĠĠĠĠ
m on
1 3
ri de
Con fig
re d
T D
E X
def ault
l at
C om
Ġt ime
arg in
ma x
ent ry
ra w
s m
č Ċĉĉ
S ize
Ġb reak
b y
Ġs pec
Ġ K
l d
ist er
n um
t x
pr iv
Ġ ro
O P
Ġ err
c reate
val id
all back
lo b
oo k
el l
Ġs rc
es c
5 5
ww w
Ġun der
Q u
to m
c ur
up port
tribut e
F ield
able d
ass ert
Ar ray
F orm
P ath
n et
> &
S I
p y
cont ent
an ager
f in
; &
2 4
Ġa pp
Ġs er
bu g
f rom
ut o
o bject
n g
H e
n ext
n ing
and ler
T I
o ck
Cont ext
Me ssage
u int
ver ride
li b
ur ation
d t
ĠI f
Ġdef ault
Ġp er
O L
b ody
r int
co re
Re quest
te mp
p i
č ĊĠ
Ġth row
; </
AT E
con d
he ad
o x
Ġh ave
Ġ} );
E qual
Ġb ool
E L
le d
ĠG et
Ġ 6
m at
o me
M O
Ġsh ould
F I
yn c
A ME
f s
is hed
ĠA N
p os
Ġn o
c heck
D O
ic h
loc al
p tr
lay er
Ġ ext
ver s
C ode
p ress
sum mary
8 0
c ss
Ġt ext
w rite
p oint
Ġtr ans
at ure
Ġre g
` `
Ġv ersion
B U
cont ext
ĊĠĠĠĠĠĠĠĠĠĠĠĠĠĠĠĠĠĠĠĠĠĠĠĠ ĠĠĠĠĠĠĠĠĠĠĠĠĠĠĠĠ
Ġ le
Ġn ode
Ġan y
f unc
T h
' s
add ing
Ġre quest
d ir
istr ibut
ib le
Ġn e
ting s
Ġ user
M L
Ġ= ==
ap i
I P
l t
TY PE
] )
ot tom
3 0
S C
Ġcol or
Ġs ub
N U
Ġb order
Ċ ĊĠĠĠĠĠ
Ġc ode
Ġe vent
s w
A n
Ġc urrent
ol d
t he
1 7
opy right
C K
Ġc heck
st atus
d is
a pt
l ang
m odule
#### ####
S P
lo se
' t
Ġ} ;
=" +
Ġ X
Ġst d
ann el
2 2
id er
n er
Ġ1 0
ect ed
Ġw idth
1 9
Ġme thod
Ġh as
U E
w eb
U p
en ame
se lect
Ġt arget
o k
q l
L e
ä ¸
A P
Ġ Y
t s
c ord
L og
in s
id get
t es
ĊĠĠĠĠĠĠĠĠĠĠĠĠĠĠĠĠĠĠĠĠĠĠĠĠ ĠĠĠĠĠĠĠ
b utton
ic s
Ġ z
ce pt
m odel
P O
g t
la s
Ġj ava
Ġst art
++ )
ch o
Ġl ong
t il
re p
lu gin
ĊĠĠĠĠ ĠĠ
Ġre quire
ã ģ
Ġwh en
Ser vice
=" #
Res ult
il der
Ġ 7
ap ache
c urrent
T able
ne ction
Ġin ter
s rc
ĠĠĠĠĠĠĠĠ ĠĠĠ
In t
H E
Ġst yle
u x
2 01
Ġu int
Col or
w h
Ġcon fig
Ġ: =
C L
AB LE
ent er
U P
Ġ log
Ġn umber
O f
Ġuse d
it or
Ġ( $
o ptions
le ar
5 0
ĠS t
N ot
oo gle
i se
E T
b l
c lient
Ġ" \
Ð °
ĠC on
pack age
p c
Ġm ay
ion s
m od
Qu ery
f ont
add r
Ġback ground
d own
M odel
b reak
3 4
Ġf ield
Ġst ate
De f
=" ../
ĠG ener
="../../ ../../
O r
all y
Ġ2 01
ĠC ON
dev ice
Ġin dex
w e
tr ue
it ch
Ġit em
ĠS et
lic ense
2 8
Z E
he ader
ifi ed
C ount
v ed
en c
a it
un signed
ot o
L oc
O ut
ial iz
int er
t ot
T he
ic es
Ċĉ ĠĠĠ
Ġin put
Ġof f
Ġb lock
Ġre ad
bt n
AR T
Ġre t
ĠS ystem
I O
m t
V ER
arg s
ic al
Ġ OR
re n
F A
[ "
p l
at tr
ust om
Ġ Ð
se arch
off set
il ename
> (
uth or
OR T
gr am
ro p
Ġd istribut
U ser
scri ption
e f
I s
pect ed
it er
O UT
d oc
lob al
O n
Ġb ase
p ost
l in
t ail
M anager
ĠO F
.. .
ate g
4 0
G roup
Ġe lement
p an
In ter
Ġm ax
fer ence
ra g
A M
Ġ http
r l
a w
P oint
Ġ IN
Ġun signed
mp ty
ob j
h ost
re quest
] );
c a
7 7
Ġ lo
F or
ver t
f rame
co pe
S H
Ċ Ċĉĉ
ON T
he ight
re q
m ode
ĠP ro
ile d
I M
N O
Re g
ad i
ifi er
Ġc reate
me thod
i able
RE G
Ġm argin
act ive
act ory
V AL
I F
u ccess
b ottom
//////// ////////
Ġ message
f a
Ð ¾
Ġt able
lic ation
Ġp re
h as
ameter s
SE T
H T
lic k
RE F
t ag
ir t
a i
las ses
m enu
Ġc opy
O verride
Ġin stance
am s
Ġwh ich
) {
Ġp ath
li g
t ected
ct x
< !--
app end
A pp
m m
op en
Ġs ource
ï ¼
Ġon ly
s g
ã ĥ
D B
Ġin it
M M
Ġa b
a pe
d r
le ase
que ue
o ption
Ġp oint
T O
ith ub
Pro perty
b j
2 3
St ream
Ġp age
roll er
6 0
ch ild
vers ion
č ĊĠĠĠĠĠĠĠĠĠĠĠĠĠĠĠ
W ith
form at
n ull
u age
mi ssion
Ð µ
Ġo ther
] [
v ide
Ġc all
lab le
Ġcont ext
Ġm od
V al
E E
Ġ Ex
priv ate
im g
F ONT
) </
la g
Tr ans
f e
d u
C C
ĠĠĠĠĠĠĠĠ Ġ
id d
ms g
at er
bu ffer
h er
2 7
D esc
st d
B e
emp late
Ġb ut
an k
Ġo ptions
s on
ĠP ublic
St atus
Ġn il
g ithub
f lags
< ?
re en
Ġon e
U til
ER T
c s
B ase
p ush
Ġ$ (
p arent
2 9
Ġ ->
Ġ ,
Ġr ight
Ġa d
1 00
ol der
f ilter
C lient
Ġf a
P RO
8 8
R AN
ff ff
Ġp art
V E
up date
L o
name space
] (
In stance
Ġ* )
Ġd is
A s
t arget
Ġp rint
Cont ent
A ction
Re sponse
LA SS
end s
D ate
Ġ" ""
v is
M S
ĊĠĠĠĠĠĠĠĠĠĠĠĠĠĠĠĠ Ġ
param s
f irst
u me
0 3
Ġ> =
me ta
pert ies
ĠU n
I mage
Ġ 9
l p
EN D
ĠC opyright
ot e
b a
Ġf ont
at ive
Ġy our
2 6
4 4
se ction
st er
S tr
ĠA r
f ree
c md
ĠG NU
L I
m y
F rom
as c
Ġ/ >
d l
te ger
F IG
m ain
" ),
ig h
P C
à ¤
Ġ( )
ã Ĥ
L ine
Ġimp ort
Ġdistribut ed
ĠGener al
om ain
A d
Me thod
In put
f d
Ġl en
end er
form ation
B ar
i ct
tern al
Ġin st
at s
im er
Ġb oolean
e lement
" ]
N E
D R
b it
ial og
3 9
S ub
nav bar
con n
( _
u g
č Ċĉĉĉ
Ġa ct
j av
y mb
irt ual
Ġm ore
Ð ¸
0 8
t ab
F rame
7 5
A l
bo ol
Ċĉĉĉĉĉĉ ĉ
// /
f alse
Bu ffer
ment s
L ay
Ġtr y
t ree
IT Y
Ġvalue s
Ġhe ight
ĊĠĠĠĠĠĠĠĠĠĠĠĠĠĠĠĠĠĠĠĠĠĠĠĠĠĠĠĠĠĠĠĠ ĠĠĠ
ĠĠĠĠĠĠĠĠ ĠĠ
% ;
he et
Ġoff set
' ),
Ġth en
ymb ol
Ġo per
c ache
c f
g oogle
CO DE
F O
ST R
3 5
Ġm ust
ĉĉ ĉ
Ġd isplay
st ream
B lock
Ġre p
( {
ĠT r
G L
Ġd ocument
ĠS ee
W indow
A ll
n s
me di
Ċĉ Ġ
Ġ q
ĠS o
P age
Se lect
ĠAN Y
o in
N av
P L
pro to
B ox
up er
k it
be fore
Ġr un
ow er
Re f
f ind
Ġf irst
Ġch ange
================ ================
rap h
d uct
Ġf loat
Ġ1 00
ĠRe turn
Ch ange
Ġ left
T ra
C P
ref er
SI ZE
re move
Ġout put
ERR OR
Ġ1 6
le m
orm al
3 8
ck et
m ark
E d
0 5
S ource
print f
riv er
at ab
Ġsize of
c all
def ined
p end
ol low
le x
il ity
c d
Ġw ork
d ing
Ġme m
ser ver
or s
Ñ Ĥ
c he
s d
H andler
} );
ens ion
o pt
Ġc al
Ġ using
fin ished
str ong
Res ource
K E
Ġa g
ab el
3 6
lo t
sh ow
Bu ilder
Ġm in
I mp
Ġre l
cp u
C heck
Ġso ftware
f low
0000 0000
ro id
N o
ĠW AR
Ġ url
En d
res ent
Comp onent
UL T
Ġwh ile
f loat
c i
ç ļ
. $
x y
Ġw as
ate s
IT H
çļ Ħ
a int
Form at
Ċ ĊĠĠĠĠĠĠĠĠĠĠĠĠĠĠĠ
r t
5 6
BU G
Tr ue
Ġdo uble
" ))
f ter
ref ix
al loc
Ġn um
AL L
Ġo ption
č ĊĠĠĠĠ
Ġm ap
St art
cont rol
ass word
N AME
ent ity
ith er
row s
c re
rit er
Com mand
V ar
c lose
ã Ģ
irect ory
Ġp adding
js on
e qual
Ġne ed
asc ript
u res
atab ase
ce iv
un finished
0000 00
v ider
b order
c ast
Ġ Ċ
a a
s pec
Ġa c
d isplay
p ng
IG N
N ew
Ġp osition
ĠE X
ri x
temp late
CO L
ern al
F unction
ĠL ist
N umber
ĠN one
st ore
2 1
apt er
an y
Ġ la
Ġs p
GE T
L ink
ack age
7 8
de bug
o ot
Def ault
ch ange
S ystem
n umber
Ġ us
P R
p ri
AC K
ĠD e
at ing
t t
Ġc ount
' ).
P er
C R
Ġin clude
o v
if t
\ "
u id
li ed
tot ype
M D
tribut es
At tribute
le g
ĠY ou
ĠWAR RAN
or age
MA X
out put
lig ht
H el
Ġse lect
ro ot
press ion
or re
F actory
ific ation
CT ION
ĠSo ftware
ĠO bject
S Y
ang uage
0 6
O ptions
Ġn et
Ġ* *
0 9
I R
Ġg ener
P ORT
4 8
ĠĠĠĠĠĠĠĠ ĠĠĠĠ
ad ata
ĠC h
B utton
s heet
Ġup date
M em
F ilter
R ow
cont ainer
u ch
" ).
r id
Ġ ar
al ign
ar ning
Ð ½
ul ar
to ol
Col umn
() ->
le ss
Ġbu ffer
r un
an sp
ĠH REF
A ct
Ġn ext
Ġ last
if def
ol ic
are d
2 00
Ġt ra
Ġn one
ub l
) (
jav ascript
g n
ec ut
ST AT
p o
S K
ĊĊ ĊĊ
iv en
M ode
0 7
ann ot
ĠĠĠĠĠĠĠĠ ĠĠĠĠĠĠĠ
t mp
ĠI S
re quire
j ava
is h
G ener
ain s
ĠD E
Ġval id
ĠT est
AT A
c ard
3 7
Ġwith out
V ersion
F LA
O ff
par se
ĠC LASS
Ġs upport
Ġa uto
Ġst atus
imp le
tail s
U B
Ġfor mat
Ġ2 00
M B
ex port
To ken
Ġo ver
un k
Ġadd ress
Ġ ;
Ñ Ģ
Ġa ss
L abel
l s
Ġre sponse
Ġe cho
Ġf ollow
Ġt er
Ġm y
ĊĠĠĠĠĠĠĠĠ ĠĠ
y m
ial ize
L ength
g oto
v m
Ġg roup
Ġ INT
in stance
g ener
A SE
$ (
op er
ĠA dd
Ġto p
Ġpro gram
w indow
h andle
Ġm ode
Ġin to
M et
Ġs w
m atch
ateg ory
t ask
idd en
m ut
x x
ï¼ Į
s ol
a ir
T ag
8 6
, "
Ġm odule
Ġdo es
Ġ ]
ĠG L
Ġf ilename
er o
Ġe ither
C reate
com mon
le vel
A GE
c al
St yle
5 9
AN D
Ġ> >
Equal s
C I
ing le
Re ad
en v
in ue
Ġp arent
p osition
A nd
Ġc lient
O F
Ġcom mand
Ġthrow s
IN E
P RE
ĠW ITH
CH AN
adi us
Ġf ree
tr a
Ġdef ined
C ell
de sc
O per
Ġpro tected
N ull
R L
h ash
if f
Ġal ign
bu ild
" ));
ĊĠĠĠĠĠĠĠĠ ĠĠĠĠĠĠ
ument s
ix ed
x ml
++ ;
c b
s i
unt ime
ud io
En try
v en
Ġw rite
li p
refer ence
Ġde vice
lat form
w ay
à ¦
ig ger
čĊ čĊ
B O
struct or
Ġo p
r u
Ġrequire d
Ch ild
Ar g
so le
m ask
ĠS e
T P
res ource
Ġ< =
v o
Ġ{ @
\ \
Ġm odel
5 4
re sponse
', '
X X
co py
emp ty
de scription
Ġm atch
olic y
h over
Ġi mage
reg ister
U I
7 6
ist s
he ma
S D
d ition
op s
Ġ( *
List ener
row ser
b in
ĠI D
read y
s ide
T ER
S R
Ġ[ ]
d f
A G
pro totype
Ġc ur
Ã ©
r s
FLA G
C ache
w ith
ff ect
Ġl ength
i k
iz ed
at tern
} )
Ġarg s
ens or
= >
Ġ ),
res h
ĊĠĠĠĠ ĊĠĠĠ
Ġ el
g ress
> ,
Ġa v
& #
ry pt
Ex t
Ġ RE
' >
i ss
web kit
Ġs k
S A
Ch ar
Ġp ort
Ġext ends
Ġm ake
in st
ĠC ont
Ġg iven
Ġl ink
p u
7 4
Ġimp lement
( *
S ON
pro perty
ĠT HE
In it
ic le
s or
a uthor
ĠĠĠĠĠĠĠĠ ĠĠĠĠĠ
Up date
: </
IL ITY
id x
p lugin
d rop
c le
P os
par t
Ċĉĉĉĉĉĉ ĉĉĉĉ
f n
lay out
Re turn
W idth
Ġpro cess
Ġf ound
col umn
Ġc o
} }
å ı
Ġ ed
nt ity
I con
M enu
Ġ< !--
Ġc allback
se e
ĠV AL
Ġ? >
Ġ! ==
Ġs ol
pro cess
čĊč ĊĠĠĠ
m an
-------------------------------- --------------------------------
ack et
S O
en um
Ġin formation
######## ########
T arget
and om
Ġb it
% %
Ġin line
< <
ĠN OT
Ġ let
rap per
Ġh andle
ĠM e
ĠT h
n own
pe ll
Add ress
Ċĉ Ċ
lin ux
Val id
)) )
ound ation
do uble
Ġ+ +
D D
at t
8 9
Ġfile s
g gle
d a
in ce
H t
O S
f ul
I B
con f
io us
3 1
ĠC omp
Ñ ģ
o use
Out put
se ssion
IT E
w idget
Ġ label
i ent
P H
th ing
Ġ( "
und le
app ing
Ġ Z
Ġre source
Ġex pect
b ind
il y
Ġo bj
c lear
Ġc atch
at rix
em ail
qu ence
il er
č ĊĠĠĠĠĠ
by te
OR M
M ax
s end
`` `
U rl
T ask
Ġso me
Q L
Ġv iew
O K
Ġr ange
ir q
de st
Ġw rit
ĠC reate
d ocument
Inter face
license s
P art
ĠWITH OUT
Ġa ction
Ġpro perty
Ð¾ Ð
P tr
Ġin fo
Ġw indow
util s
FA ULT
ar r
ĠF ile
AT ION
Ġinter face
D C
f r
OR D
ĠAr ray
Ġli mit
w o
Ġf ilter
COL OR
ä »
enc y
com mand
4 9
Ġfollow ing
v ices
str act
EN SE
m er
T ree
ent ifier
P osition
A PI
ult ip
w ait
it ies
S p
Ġ local
Ġa fter
st ant
Ġpro vide
Lay out
ĊĠĠĠĠĠĠĠĠĠĠĠĠĠĠĠĠĠĠĠĠĠĠĠĠĠĠĠĠĠĠĠĠ ĠĠĠĠĠĠĠ
UR L
ON E
Ser ver
U RE
e ar
style sheet
T his
. /
pan el
Ġal low
fo ot
Ġbe fore
set s
7 9
Se arch
IN S
Col lection
l ing
-- -
S pec
Ġs ign
Ġ1 2
f c
Sc ript
ri ption
Ġf rame
Ġ{ }
'] ,
Ġimp lied
Ġ2 0
r on
de c
Cont rol
Ġc re
P re
add ress
ad ow
******************************** ********************************
o se
ĠReturn s
P ER
PI O
L L
ĠH T
tr act
DE V
Ġt ag
IC E
N um
MA SK
che s
c an
", "
Ġser ver
g o
Ġspec ified
M od
Ġor der
C F
_ .
Ġ1 5
: "
N ULL
c y
l an
Ġex p
Type s
) ->
ot al
c enter
ĠT O
4 5
ex p
A RE
L ast
( [
ma il
CH E
Ġcol umn
IC ENSE
Ġt ask
x FF
MO DE
p adding
Cont ainer
EX T
6 5
li mit
Ġ query
LO G
C ase
ver y
Ġ( '
[ $
DI R
ĠF OR
ig inal
D o
m ote
Ġ load
g l
Ġse e
code d
p m
AB ILITY
IN D
V is
ĠF oundation
DE BUG
ĠM A
Ġ ::
p th
ĠF or
g en
s upport
de lete
ec ute
bo ot
He ader
A b
Un it
back ground
W rite
Ġf ail
M odule
Ġf ind
FI LE
{ {
Ġth ere
Ġf lags
bo ard
Ġ entry
Le vel
Ġfor m
Ġspec ific
ai lable
v ector
ceiv ed
ĠS h
CON FIG
un it
W idget
ext ern
o ther
ĠA n
p g
Off set
M ENT
D et
Ġc ache
A Y
Ġ ~
ser vice
cur ity
file s
ĠW e
S to
on ly
Ġ| =
i que
AC E
ult i
Ġd ate
Q U
ch annel
ĠA PI
h w
c us
' ))
Ġn on
set tings
v ol
E ntity
W R
6 9
Ġre f
ĠĠĠĠĠĠĠĠ ĠĠĠĠĠĠ
image s
Ġex pected
Ġe ach
medi a
la p
Ġit s
c lasses
ĠT ype
r adius
a z
se cond
Cont roller
ĠF ree
o ve
=" /
6 8
č ĊĠĠĠĠĠĠĠĠĠĠĠĠĠĠĠĠĠĠĠ
He ight
Ġ ra
l ong
* )
R ange
c ent
u mp
to ken
IN FO
Ġch ild
w ard
Ġex cept
LO CK
KE Y
ĠS T
W eb
ĠR es
lo ud
Ġ row
f ull
l it
inter face
H andle
im um
Util s
Ġreg ister
rep lace
Ø §
F ont
se mb
b b
sm all
st at
â Ģ
Ġe mpty
Pro vider
c ap
A c
( !
Ġa p
Ġc ell
P AR
Ġ[ '
S B
iv ity
ac ity
Ġa ccess
Ġs ame
o le
Ġper mission
f inal
iz ation
pro ject
A SS
Ġo ld
a uth
ins ert
am ily
s ql
ex pected
Ġwh ere
D ATA
a uto
ix el
č Ċĉĉĉĉ
Ġ" %
7 0
ĠS er
Ġr g
value s
s l
se c
M in
B ack
Con nection
RO M
Ġ 32
in es
o ss
n ow
E mpty
D is
m argin
t en
æ ľ
ĊĊ ĠĠ
V ector
ire ction
c r
st amp
et ch
fo cus
Set tings
as ic
ĠA ll
C o
N et
c pp
th read
Ġby te
i an
s v
s ave
c m
Ġs uper
Ġh ere
D ir
P an
um b
Ġv irtual
F e
Ġl anguage
import ant
I E
ĠAN D
Ġo pt
Se ssion
ĊĠĠĠĠĠĠĠĠĠĠĠĠĠĠĠĠ ĠĠĠĠĠ
Ġt emplate
en e
Ġn ow
Ġro ot
5 8
her it
str ap
comp onent
v ious
c at
ĠE n
A ccess
Ġin d
Ġv is
> >
å Ī
ren der
ãĢ Ĥ
M I
F E
Ġt mp
Pro cess
Par ams
u ction
N one
be gin
ĠV ersion
Par ameter
pre c
Ġo pen
R un
Ġbe en
Ġle vel
N ext
r ate
Ġby tes
S ER
Ġp os
un lock
cl k
ĠC heck
or ld
in ation
sw itch
w n
l g
dis abled
C urrent
Q ue
h s
im ation
ition al
ĊĠĠĠĠĠĠĠĠĠĠĠĠĠĠĠĠ ĠĠĠĠ
p a
r ange
i er
cf g
H ash
c lick
C allback
Ġpar ameter
Nav Bar
Ġvar iable
P T
Ġreturn s
r x
A V
Ġst ream
ro y
ce s
Ġter ms
Ġpar ams
Ġsh ow
ĠD ata
F irst
a j
s ys
De vice
="../../../../ ../
Ġhe ader
al t
T op
use d
Ġf e
F R
a ded
co ding
Ġs end
Ġsw itch
pen ame
in line
mut ex
p ol
O pen
oc i
ĠC ol
Ġbu ild
C A
=" -
F S
ĠB G
Ġse arch
j oin
X T
(" %
Ġde tails
field s
D ocument
IN VAL
s ert
4 6
trans form
Ġin ternal
g lobal
Ċĉĉĉĉĉĉ ĉĉ
Ġt emp
sc ale
RE AD
com ment
TI ES
O ption
Ġre move
act er
s cope
s b
AL SE
Ġ' /
Ġfa iled
r ing
D L
S ION
A A
Ġth an
Ġp ri
b ook
p k
9 0
ä º
Th read
pos it
à ¸
Ġm sg
type s
sh ould
O ST
To ol
g ing
x f
8 02
` ,
to ggle
ad min
m ount
s ort
am l
Ġst ore
TE ST
Ġo verride
Lo ad
ĠP ar
Re cord
C ore
. "
lic e
ig ation
U D
ĠB u
Ġmod ify
al let
C all
IT ION
Ġh ost
O D
af e
me t
5 7
U ID
Ġs ystem
čĊč ĊĠĠĠĠĠĠĠ
mo v
Ġ Ã
b oolean
ĠA s
pe ed
-> _
Loc ation
4 3
9 8
ĠA R
ir on
Ġpar se
en able
Config uration
Ġbu f
$ {
s u
ers on
p ed
ubl ished
ly ph
AT H
ac cess
we ight
mem ber
4 2
sk b
Ġse ssion
Ġh ash
B IT
Ġde lete
I ter
ast er
Ġcon n
p op
foot er
Ð° Ð
Ġsol id
el y
A CT
G R
Ġc orre
V ENT
O M
ph a
ĠA p
ve lo
conn ect
W N
U SE
st ack
ma ke
() :
an ch
6 7
in ary
ign ore
ĠWARRAN TIES
U ES
T emplate
ru pt
ed it
n def
st op
ĠL O
as on
e cho
Ġal ready
MO D
s ystem
TI ME
S U
Ġde st
item s
33 33
ER N
R ender
c ustom
Ġcal led
i pe
str aint
B undle
á Ģ
ĠC lass
Sto re
ĊĠĠĠĠĠĠĠĠĠĠĠĠĠĠĠĠ ĠĠ
~ ~
Ġcont ain
s n
Par am
br ary
ex ample
//////////////// ////////////////
b us
INS ERT
O p
Ġ qu
Ċ Ċĉĉĉ
ar m
t n
! <
ap h
ĠC om
th on
ĠA l
t ed
return s
if ndef
fo o
ern el
w ise
Ġ" /
ĠBG COLOR
re set
act or
25 5
type def
O B
by tes
c allback
ĠL e
ĠA L
Ġpro ject
Hel per
Le ft
P ort
__ __
Ht tp
; <
c la
Ġav ailable
Ġp ost
Ġname space
Ġ2 55
ializ ed
Ġre n
Or der
Ġre ference
Ġe ven
Ġg o
L EN
Ġp h
' '
Loc al
Ġo s
D ialog
t k
str uction
yn am
ç Ķ
ic ro
to col
Ġc l
Ġrg ba
in ner
S L
c ul
ĠN ame
ĠP y
Ġcon nection
## #
_ ;
ĠO n
ME M
c mp
d omain
Ġ Exception
STAT US
P h
Ġs uccess
p lace
Ġg r
ĠT R
Ġser vice
drop down
Ġcon dition
u k
ĠI O
="../../../../ ../../
ĠTr ue
å ®
ĠINT O
to String
.. ..
ĠCON FIG
Re ference
posit ory
Ġn av
IG HT
_ ,
g ment
=" _
( __
Ċĉĉ Ċĉ
equal s
Ġpar ameters
ce ll
r q
Ġ" ,
oo st
the me
tx t
ĠL og
) /
o om
Ġcomp onent
B E
x a
C S
ct rl
N S
Ġren der
s ing
7 2
g p
å ħ
ĊĠĠĠĠĠĠĠĠ ĊĠĠĠĠĠĠĠ
sp lit
ĠAp ache
St ack
i ction
let ed
ĠI t
gr id
sh adow
Desc ription
Ġ license
By te
Ġit er
ct l
ĠA ssert
ĠA pp
y nt
di str
ĠRe g
we en
Ġde v
a de
x c
. '
s ite
Ġp ass
Ġal so
are a
C D
f b
ver se
H ER
Ġb et
d s
at ures
x E
Ġ define
Ġex ist
RE Q
ge st
Pro perties
D raw
Ġat tribute
M atch
ug h
Re ct
semb ly
mod al
" },
ut ion
ance l
af ter
Ġw ant
Par ameters
N OT
Ġcont inue
NE SS
f lag
R T
S M
Par ser
b its
i od
( -
s uccess
ad o
bt ain
UL AR
u c
ang le
ĠD o
ib ility
Y PE
Imp l
In teger
Ġ em
x ff
he lp
( :
Ġth read
Ġt y
Ġj av
g ra
PO SE
Ġ' <
. *
co un
int ernal
iter al
and ard
I f
Ġpoint er
Ġd on
m g
ĠIn c
Ġv er
T itle
ĠP ART
**************************************************************** ********
h d
å Ĳ
ing s
Ġr c
ĠVAL UES
im al
Ġre ceived
h andler
so ft
En um
Ġal t
t ip
distr ibut
S k
CE SS
T X
ä ½
n one
F alse
Ġt ree
at tribute
Ġto ken
16 0
N T
> .
D IS
ĠD ef
CHAN T
f ilename
d river
Ġo btain
4 7
gr aph
Ġfield s
Ġm ain
UR POSE
Ċĉĉ ĠĠĠ
In valid
Ch annel
sol ute
Ġmem ory
ad ers
st ep
d at
Ġj ust
x F
ĠU p
ens ions
O bj
W ork
Ġch annel
Ċĉ ĠĠĠĠĠ
IT NESS
M T
)) ,
Ġse cond
co der
ĠP RO
A g
O ver
C lick
ide o
AD D
ER CHANT
T ABLE
D own
ro ugh
F UN
AR Y
boot strap
st ats
ut f
802 11
v as
ed ia
ĠP URPOSE
ERCHANT ABILITY
{ "
ri ef
Ġ ],
Con stant
IC ULAR
Ġl ater
8 5
i ag
R ule
m ac
T ab
d ay
i as
Ġen v
ĠD ate
Ġcont rol
tot al
H ost
ĠPART ICULAR
e ach
w p
f l
Ġarg uments
9 5
Ġ' \
x b
up le
Ġ5 0
pro duct
Ġd one
o th
ent ial
Ġd irectory
F loat
Ġ ent
ĊĠĠĠĠĠĠĠĠĠĠĠĠĠĠĠĠĠĠĠĠĠĠĠĠĠĠĠĠĠĠĠĠĠĠĠĠĠĠĠĠ ĠĠĠ
sp in
lat ive
ig in
E CT
C re
ĠF ITNESS
} \
è ¿
ynam ic
Ġ ...
Ġre ser
ĠN O
P layer
or iz
he ther
="../../ ../
ent ic
b ed
Ed it
En abled
9 6
Ġm an
" .
ĠĠĠĠĠĠĠĠĠĠĠĠĠĠĠĠ ĠĠĠ
Ã ¡
se q
re cord
PE CT
ca use
TR Y
d ated
l n
Ġf ull
)) );
reg ion
sk ip
rag ment
æ ĸ
ĠT o
x e
Ġre cord
on y
P UT
Ġinst all
ultip le
25 6
P S
'] )
L icense
ar n
0000 000
Ġd b
ist ory
8 4
() {
ĊĊ Ċ
ST ATE
key s
f amily
is ion
ĠV alue
B ASE
b rief
B R
U se
k ind
I DE
Ġ html
D isplay
ĠM ERCHANTABILITY
LO C
de l
S ign
P arent
c v
C al
b ers
Ġg lobal
G raph
Ġex ample
iter ator
U M
ĊĠĠĠĠĠĠĠĠĠĠĠĠĠĠĠĠĠĠĠĠĠĠĠĠ ĠĠĠĠĠĠĠĠĠĠĠĠĠĠĠĠĠĠĠĠĠĠĠĠĠĠĠĠĠĠĠĠ
T A
tr ib
er a
W h
Ġg l
in ode
Ex pression
> ();
ĠE rror
= %
R ight
iron ment
lu ster
la sh
eng ine
TH ER
Name s
Ġ1 1
HT ML
Ġprovide d
8 2
Ġb utton
di ct
at om
, -
i i
) ]
T W
Ġm ark
e ad
A uth
Ġconfig uration
lic it
Ġuse ful
re port
Ġen um
h r
LE CT
Ġag re
fin ition
w s
By tes
Ex p
p refix
h igh
li de
Value s
ir m
R out
d raw
Ġ/* !<
h idden
Ċ ĊĠĠĠĠĠĠĠĠĠĠĠĠĠĠĠĠĠĠĠ
c ategory
ĠIn it
Ġtr ansp
L ICENSE
L INE
ri es
Re ader
Ġ1 4
j e
way s
Ġ lock
code c
k nown
Ġun defined
SC R
me d
"> &
d st
Ġresult s
ur i
h ome
Ġs cope
Ġb ox
-- >
CO MP
or ity
5 2
mo z
? :
f p
Ġb ody
Ġc pu
Ġapp lic
istr y
se ct
ist ance
VER SION
De bug
icon s
I X
Ġex press
D ATE
P P
u ff
he l
ol ve
J son
Ġc md
Ġs m
Ar gs
8 7
Ġright s
export s
pre v
end ing
sh ort
Ð »
Pro ject
Ñ ĥ
prec ated
Ġ} )
id s
ĠF alse
imp l
Ġex ception
ser v
ĠN ew
p assword
Ġm at
M on
-------- ----
i ant
ol ume
__ (
n p
FF FF
ex it
Ġc lear
O FF
select ed
L AN
5 3
P ackage
Ġ% }
ach ine
p layer
bo ve
ay load
"" "
r am
adi ent
Ġset tings
a h
r ad
E Q
il t
Ġpermission s
Ġ ĊĠĠĠ
s ync
Ġc ustom
oun ter
ge d
Ġelement s
Ġg over
d c
Ġn ormal
hed ule
Tra ck
la ck
R X
Ġp ackage
" ],
Ġj son
Ġtrans action
ĠM ath
B it
ĠN o
P U
P y
'] ;
Ġwrit ing
C ur
M sg
Ġval ign
Ġd if
ĠWARRAN TY
Ġf ore
HER E
r ule
I ST
Change d
oriz ont
Ġcont ainer
con nection
De lete
Ġp ublished
ĠHT ML
f ail
Ġrep resent
D F
CHE CK
ĠM ap
at al
B ody
P M
St orage
A re
c rypt
Ġtype s
9 7
E M
wh ile
UL E
f ix
ĠK IND
C MD
a iled
Det ail
r m
__ ,
ock et
TE XT
Ġ location
LA Y
j ust
Ġreser ved
x s
Ġbe cause
C B
En coded
Ġa bove
==== ==
č Ċĉĉĉĉĉ
M IN
doc s
s ample
e v
Pan el
S end
scri be
4 1
F lags
P lugin
end ar
ynt ax
Oper ation
æ ĺ
d p
Ġreturn ed
A ssert
inst all
Ġ https
P rint
in ition
ter m
frame work
z one
' .
ĠT H
Ġd irect
ce d
I ZE
Ġt wo
wh ite
Ġ ss
orizont al
t w
Ġ et
EN ABLE
Ġthe m
ĠN ot
module s
ick er
Ġre q
Ġc enter
Met a
Ġd iv
Ġd ir
ex ception
li ance
ound s
F ORM
Que ue
ĠTr ans
y y
Ġme t
čĊ ĠĠ
Ġ( _
Ġoper ation
art icle
S ymbol
lo y
Sh ow
; }
CL K
t imer
` .
sh ot
c ip
ers ist
pe at
ĊĠĠĠĠĠĠĠĠĠĠĠĠĠĠĠĠĠĠĠĠĠĠĠĠ Ġ
P ri
vis ion
b s
cp y
, '
Ġjav ax
en ded
um mary
12 8
C lasses
1 000
Ġal loc
S QL
Ġh andler
I V
å ¤
ĠW h
m c
Ġd own
R oot
Ġw ait
n on
pri mary
low er
x is
ĠI P
key word
Ġ2 4
CT L
W riter
Ġsh ort
L ock
W E
b d
Ġ[ "
Ġ" "
ator s
o us
L ong
f req
IP T
RE E
æ ķ
p lay
Ġand roid
ĠEX PECT
re m
Ċĉĉĉĉĉĉ ĉĉĉ
ĊĠĠĠĠĠĠĠĠĠĠĠĠ ĊĠĠĠĠĠĠĠĠĠĠĠĠĠĠĠ
d one
Ġ1 8
I VE
H as
G rid
{ }
block List
ert ex
Ġc a
s r
h ide
time out
è ¯
De finition
ĠO pen
MA P
MS G
Desc ript
sc reen
_ (
val u
X ml
co q
Ġde scription
pro p
Con n
m ar
Ġthe y
f g
Ġsp ace
Ġf in
d ialog
Ġc tx
Arg ument
distribut e
ĠU ser
ge x
7 3
bu ff
h dr
Ġw ord
le ep
Ġt otal
re lease
ent s
U s
isp atch
o pe
Ġlo ok
Ġd oc
M atrix
5 1
Ġ queue
w rit
Ġcre ated
event s
d im
P ATH
Ã £
Ġin teger
tr ack
K ind
Item s
D ITION
App lication
al k
Ġex it
AT TR
iz er
h older
pi pe
Var iable
Ġli ke
ĠU se
Ġsc ript
Ġd atabase
Ġst ack
Ġp acket
am era
ar ge
Ġ3 0
ome try
Ġ{ '
OP T
IF T
G e
PO ST
Ġr ule
CT RL
RE S
ac ing
ab s
8 3
Ġp lace
Act ive
name s
app lication
ĠLicense d
Ġp as
=" ">
Ġname s
h av
and roid
Ġli brary
DE F
'] ['
ializ er
w in
Ġab out
ut om
Met adata
Ġp e
By Id
) *
Ġ{ "
C ustom
x d
Ġn g
B oolean
ĠI s
x B
AR G
Ġf lag
Ġex ecut
Ġi o
D oc
B ind
M an
w arning
T L
[ :
Window s
ĠĠĠĠĠĠĠĠĠĠĠĠĠĠĠĠ Ġ
MA GE
Ġarg ument
6 3
ĠS H
As ync
9 4
Ġt x
Sc hema
Ġsc ale
Ġinstance of
Ġat tr
Ġre distribute
. __
lap se
g or
FLAG S
Ċ ĊĠĠĠĠ
p ool
sh ape
ĠF ALSE
LO W
ĠU RL
cl ar
g lyph
() ));
æ Ī
EL D
pro tected
j o
C M
ve c
ĠJ SON
Ġ ì
Ġp lugin
TE D
Ġapplic able
up p
v b
Ġc opyright
Ġex port
ĠIn t
pack et
sc roll
Ġ loc
Ġx ml
Ġ' ',
ut er
Ġe lem
al low
Ġitem s
ĠIn ter
c lean
Ġf n
M ock
or ies
arr ant
Ġfunction s
d irect
čĊč Ċĉ
č ĊĠĠĠĠĠĠĠĠĠĠĠĠĠĠĠĠĠĠĠĠĠĠĠ
A pi
j ob
I LE
w rap
b g
al y
c or
V er
T C
V M
Ġf unc
J SON
size of
Ġth rough
ff f
ĠE vent
model s
9 2
ĠCon fig
t l
ĠC O
OB J
ord in
B Y
M ark
> ::
apt ure
ĠTO DO
Ġassert Equals
Ġw arrant
U X
EN TRY
Lay er
d ma
Ġ" <
Ġact ive
Ġs ingle
f x
Ġal ong
ad apter
C RE
Ġ. =
Ã ¤
j query
SE LECT
Ð º
Ġ ul
6 2
C opy
Ġde bug
Ġapp lication
app ed
e q
r b
Ġi p
ut ure
Ġ1 3
ĠU SB
Ġb tn
Ġselect ed
ch ron
66 66
W AR
ib r
sc al
DE FAULT
Ġen able
] ]
Ġs ort
ac count
G B
Time out
çĶ ¨
Ġv ector
Ġcomp liance
p ag
9 1
c ar
c nt
6 1
tr igger
pl it
p latform
Ġass oci
ĊĠĠ ĊĠ
as sets
a u
Ad apter
ĠT ime
ĠF unction
Trans action
ĠCON DITION
ĠDef ault
mo ved
er m
Ġ- =
f ill
Ġm on
oss ible
dis able
Ġ$ _
leg ate
Ġ ignore
Iter ator
Ġh ope
Ġinit ial
. \
S w
Ġw hether
Ġwarrant y
0000 0
vide o
lang uage
Ġ" $
type of
D A
W e
w ner
ĠB AS
Ġg oto
VAL UE
en abled
tr ace
S cope
C an
Ġ[ ];
à ¥
ma ster
ub y
Ġ" -
page s
ab ility
D T
ĠS c
n ormal
AD DR
m anager
set up
] :
\ /
ue s
] =
Ġcont ains
Ġgover ning
x ffff
ĠS IZE
app ly
NavBar Cell
Ã Ń
Ġse ction
Ã ³
fer ent
ĠF ROM
IM IT
c loud
re l
ĠA S
Re port
ĠQ String
A ss
re al
assert Equal
er ge
DEV ICE
bl ank
net work
D ER
Ġ} }
å Ĭ
ĠBAS IS
ĠCONDITION S
Ġpro perties
tag s
av ed
pro file
SH IFT
ex ists
Ġtra ck
Field s
Ġbet ween
Ġobject s
Ġm ask
' ));
è ®
t ach
Descript or
In st
. ,
ch ip
Re p
par ser
G PIO
f mt
proto buf
? >
Ġ2 5
CF G
log in
ass ign
u a
W ORD
w rapper
M y
num er
R el
F T
Ġro le
s uper
Ġla w
get Name
assert Equals
Ġthe se
get Element
O ne
Ġ{ };
Ġin valid
J ob
ce ive
p ower
7 1
idd le
Ġp y
ĠL I
Ġevent s
par ator
En v
OR Y
CH AR
ĠN ode
Ġ$ {
Ġfore ach
urre n
Ġs ure
c er
lu g
Ġra ise
gor ith
IN IT
Ġpar am
Str uct
ĊĠĠĠĠĠĠĠĠĠĠĠĠĠĠĠĠ ĠĠĠĠĠĠ
ĠW HERE
OF TW
Ġo ur
OFTW ARE
Ġst ep
Ġlimit ations
de lay
z e
x A
b c
cont roller
Ġpro b
Ġcon f
tab s
************************************************************************ ****
di a
A UT
ĠB O
D S
ĠA d
ĠQ u
ĠW eb
Ġb l
C lose
tr ie
F L
Ġadd r
d om
G lobal
let ion
ĠR ed
ire d
ater ial
Ġcon s
ĠMA X
N on
Test s
ĊĊ ĊĠĠĠ
D omain
p ass
Ġcondition s
Ġmethod s
Ġ ge
w r
ex pr
R C
E rr
th rows
is set
On ly
L IN
hav i
Ed itor
ĠAL IGN
9 3
pl an
ĠUp date
Ġor iginal
Ġw eb
E C
n ap
Ġagre ed
Ġre lative
K ERN
b ad
ir cle
ID TH
script or
Ġbe ing
ä¸ Ģ
M C
ke ep
ro ss
HE AD
yn chron
%% %%
Ġt e
ĠĠĠĠĠĠĠĠĠĠĠĠĠĠĠĠ ĠĠ
g a
Ac count
pro c
s ig
point s
Ġre set
ed itor
s ymbol
N e
å ľ
P olicy
ĠE nd
Log ger
g reg
Ġ" ",
g h
SCR IPT
Ġo wn
ĠTR UE
E INVAL
S upport
F ailed
al led
File s
ch an
Reg ister
plugin s
Re move
m ath
Ġpre vious
F unc
Ġkey s
ang o
Par se
8 1
he ll
tr ic
Ġe qual
S uccess
result s
MOD ULE
L en
Ġ Ċĉ
Ġcon sole
X ML
Ġde l
= {
F IL
mo ck
č ĊĠĠĠĠĠĠĠĠ
A uto
t body
S UP
P ost
Ġu i
2 02
Net work
ASS ERT
w ild
F C
de tails
ĠS OFTWARE
coun ter
/ ">
Ġad ded
ĠĠĠĠĠĠĠĠĠĠĠĠĠĠĠĠ ĠĠĠĠĠ
Ġb its
. ',
de pth
S pell
(' #
g it
ĠUn less
Ex pr
ur ing
Ġbe gin
b p
Ġm enu
icro soft
ĠB y
at tributes
N ONE
% ,
Bu ild
Ġb oth
Ġa cc
x C
") ]
= \"
Ġde pend
Â ł
F P
sh ared
": "
Ġinst ead
Ġs ave
Ġs ample
u ally
ĠĠĠĠĠĠĠĠĠĠĠĠĠĠĠĠĠĠĠĠĠĠĠĠĠĠĠĠĠĠĠĠ ĠĠĠĠĠĠĠĠĠĠĠĠĠĠĠĠĠĠĠĠĠĠĠĠĠĠĠĠĠĠĠĠ
Ġst op
a udio
S ocket
Ġ ĊĠĠĠĠĠĠĠĠĠĠĠ
resh old
s a
Ġcorre ct
Ġ Key
M ain
LI ST
STR ING
Ġoper ator
ializ ation
Se lection
py x
as m
UN T
ne ss
Ġt ab
n r
Ġtrans form
=" "
US ER
) "
EL L
ĠB ase
. ",
so cket
ad ing
At tributes
Ġre port
S te
() ).
v c
Ġtransp arent
re gs
it ter
mo use
c hed
ur a
FI ELD
ĠĠĠĠĠĠĠĠĠĠĠĠĠĠĠĠ ĠĠĠĠ
Ġun it
Do uble
ĠN AME
Ġre al
EN O
con trib
; ">
iction ary
ur face
th en
cont ains
com m
D atabase
qu iv
ON G
s oc
f i
ee ded
Ġp ut
Trans form
res er
j pg
age ment
dest roy
E VENT
] ->
Ġj Query
Ġ[ ],
Ġnet work
trans ition
child ren
var iable
leg al
qu i
ee k
E G
ĠO r
Ġ' ';
ĠS ET
Mem ory
Ġhe lp
s ive
ac y
ĠIn teger
P acket
Ext ension
} /
int e
Ġty pename
Ġerror s
t c
Ġ' %
gp io
comp iler
Ġ icon
M edia
ĠS ub
Ex ecut
Pro file
R ed
Ġp layer
P ool
cont inue
Lo ader
_ ->
co ver
p ing
Ġcon vert
ĠL o
k w
us b
. ");
Ġnot ice
Ġh ow
4 00
sub mit
Ġass ign
; /
B L
Ġpro to
Point er
================================ ================================
{ %
T imer
Ġact ual
Ġs ys
Ġd st
user name
print k
so ck
pro gress
Ġ 64
99 99
iss ing
ĠS PE
NU M
M ask
Ġdif ferent
Ġ< ?
)) .
Ġprint f
tool s
Ġtime out
Result s
ex ecute
ç »
R AY
co ur
um my
vo ke
n a
ar row
Ġc lose
Ġin sert
Ġstruct ure
W S
gn u
g ame
Ġn p
WR ITE
aw s
Ġto ol
g re
< !
Ġpas sed
T e
MP L
Ġcol lection
Select ed
č ĊĠĠĠĠĠĠĠĠĠĠĠĠĠĠĠĠĠĠĠĠĠĠĠĠĠĠĠ
g u
Ġother wise
p id
Ġ= ========
oc us
comp lete
ansp ort
ĠRe ad
Re quire
x D
a e
Sc ale
P ACK
ĊĠĠĠĠĠĠĠĠĠĠĠĠĠĠĠĠĠĠĠĠĠĠĠĠ ĠĠĠĠ
z z
Ġt d
Ġind ic
Ġn s
Ġd river
wh ere
b oost
RE CT
ĠF orm
Ġac count
S PE
Ġ1 9
red ential
ol y
ĠC ode
sh ift
side bar
ĠT ext
ĠP er
Ù Ĩ
ext ernal
Ġc lean
b i
ol ver
Ġs ince
à §
Ġo cc
est ed
ro le
Ġa uth
in valid
} {
ant s
Ġnode s
Fe ature
IN ST
ĠN ote
as ure
a o
P A
ST ART
Ġ* ,
group s
W ord
aj ax
Ġbase d
Ñ ı
ĠLO G
or ation
Key s
co in
p olicy
tr ics
In ternal
Ġm d
Ġdoes n
: %
v irtual
D U
ĠU SE
ĊĊĊĊ ĊĊĊĊ
ma ch
G ame
check box
Ġ ĊĠĠĠĠ
CO MM
it u
h y
iv es
mem ory
ĠD esc
met adata
p ull
C CESS
v id
TI M
error s
(' .
D irectory
ĊĠĠĠĠĠĠĠĠĠĠĠĠĠĠĠĠĠĠĠĠĠĠĠĠ ĠĠĠĠĠ
ann er
N C
FI X
b f
Pro xy
lo sed
us ers
} "
glyph icon
Ġlo op
) \
Hel p
r untime
tr l
proto col
S V
Ġp r
Ġc ould
ex ec
I AL
atom ic
Ġat tributes
AN CE
Ġsupport ed
ĊĠĠĠĠĠĠĠĠĠĠĠĠĠĠĠĠĠĠĠĠĠĠĠĠ ĠĠ
et a
M ouse
æĺ ¯
R IGHT
} .
s ince
w l
E ach
Ġc annot
Ġtype of
ut able
Select or
D MA
] *
ĠI E
EX PORT
Ġag ain
' re
ĊĠĠĠĠĠĠĠĠĠĠĠĠ ĊĠĠĠĠĠĠĠĠĠĠĠ
è ¡
gorith m
At tr
å Ń
quot e
pro perties
Ġapp ly
com mit
Ġw x
A VE
Ġp refix
h pp
( @
ik i
w d
Ġrep lace
'] );
hed ul
b rowser
in herit
ĠG PIO
entic ation
Mem ber
col lapse
gr adient
ge s
ro me
c ut
C AP
Ġz ero
lip se
################ ################
Sp ace
C LASS
\ +
fo und
Ġm sm
A I
Ċ ĊĠĠĠĠĠĠĠĠĠ
Ġw ould
. <
Ġ EN
h ref
co me
Ġen abled
lin es
sv g
) ",
UE ST
O b
it ive
Node s
ver ter
c u
ĠS k
Ġj ob
Ġimplement s
Ġb ind
To String
ym f
S W
LO AD
sc an
á ĥ
ymf ony
ĠMe ssage
Ġal ways
i li
end or
AR GET
Event s
DE C
Ġ" ";
Ġli b
D est
INT ER
lo op
F lag
opt s
W rapper
Constant s
de tail
s afe
Ġh and
Ġp ossible
W IN
SO UR
res sed
æķ °
v a
de p
own er
th row
lo ader
r d
component s
Tra ce
ms m
In d
ra ft
UT E
R ole
sc ss
Ġ{ {
Ġdef inition
re c
r andom
ic ode
B AR
SP AN
id entifier
Ġh igh
log ger
Ġ1 7
print ln
Ð ¼
lig n
s z
">< !--
ĠC H
Con f
00 1
F ail
ĠL oc
TR UE
U INT
up load
du mp
al s
p ub
Ġp assword
vis ible
V AR
Ġsk ip
Ġb inary
Ġ END
J ava
Ġre lease
d ist
Ġtrans late
Ġo b
N ET
ĠS U
Ġdocument ation
W arning
Th at
C ap
Ġassoci ated
st orage
æ Ĺ
é Ģ
Ġs uch
ado op
point er
t ect
je ction
ul ator
F ull
fe ature
en ch
An not
act iv
Ġro t
Ġ ];
Sc roll
() </
ĠO ption
i um
FF ER
ĠA t
State ment
Ø ±
WAR N
Ġ& =
Pro tocol
G EN
oper and
ty pename
Ġadd itional
] ))
R I
En g
i ed
] +
F ound
pro ps
(' /
= $
al ys
ath er
Ġab solute
ĠA SS
: #
Ġcur sor
L im
Ab stract
k ens
AR D
l us
Ġwith in
ĠD B
Ġ entity
se curity
P attern
UT F
Ġ201 5
ce l
ĠH t
Ġchar acter
ut es
M ac
Ġ1 000
ys ql
ert ific
à ®
hel per
f lex
Ġv ert
LI B
ĠO ut
col lection
us r
Ġ ----------------------------------------------------------------
gra de
R untime
å °
ĉĉĉĉ ĉĉĉĉ
ub e
Ġf ix
MA C
lo ok
Ġs ymbol
Ġchange s
US B
/ "
Ġm achine
alys is
An y
č Ċĉĉĉĉĉĉ
cre ment
Ġd omain
UN D
å ¼
at io
Ad min
Act ivity
ĠIO Exception
s lice
OR S
E ffect
ä ¹
N V
Imp ort
S imple
rad io
T emp
-> {
N D
Vis ible
Ġp op
Ġw ay
IL D
B B
ĊĠĠĠĠĠĠĠĠĠĠĠĠĠĠĠĠĠĠĠĠĠĠĠĠĠĠĠĠĠĠĠĠĠĠĠĠĠĠĠĠ ĠĠĠĠĠĠĠ
Not Null
index Of
Ġ" .
r g
UP DATE
M apping
Ġthe ir
č ĊĠĠĠĠĠĠĠĠĠĠĠĠĠĠĠĠĠĠĠĠĠĠĠĠĠĠĠĠĠĠĠĠĠĠĠ
Ġm ock
Ġid x
() ))
require d
p icker
' }
s f
Ġ ).
Ġl ang
Eng ine
enc ies
S ave
Ġin v
j ango
ĠReg ister
Ġn eeded
ĠDE FAULT
ak es
Ġ ĊĠĠĠĠĠĠĠ
SY S
T S
Ġm ultiple
der r
TH OD
Ċĉ ĠĠĠĠĠĠĠ
re ct
h ci
E Y
he s
č ĊĠĠĠĠĠĠĠĠĠ
ff ic
Ġ\ "
node s
CL UD
Ġset ting
b log
CLUD ING
EE EE
al le
sc hema
Gener ic
" ].
b ound
ca ption
ay ment
oc aml
medi ate
se l
Ġf mt
z ero
t f
mo b
E l
Ġm atrix
T x
Ġb ottom
ĠD O
on s
annot ation
V IDE
ĠSt atus
ĠP oint
h orizontal
al f
Ġ mp
Y ou
P F
ĠB it
Ġb r
Ġgener ated
Ġd im
ch art
e lem
Ġa pi
3 00
Ġwh at
velo p
Ġchar set
n ost
M ove
Ġchange d
ĠH ash
ĠV ector
CT YPE
sh ip
Ċĉĉ Ġ
Ġv ia
dr v
head ers
! !
ĠP H
ts d
mat er
Pro duct
n l
Ġd raw
SU CCESS
Ġp latform
sum er
m ix
Se curity
St ats
par ameters
Ġstr ict
CP U
ĠASS ERT
/ _
h a
P refix
ex tra
Ġm ove
for ce
Ġe very
ĠĠĠĠĠĠĠĠĠĠĠĠĠĠĠĠ ĠĠĠĠĠĠĠ
Ð ´
Re pository
re qu
Ġh idden
v ance
ro t
v t
Ġc ap
sp acing
b ot
Ġas ync
Ġlog ger
Ġcon structor
as ync
Ġimplement ation
cul ate
Ġinter rupt
Ġset up
ĠW indow
Ġsm all
O W
Ġ ON
Ñ ĭ
el f
S ort
Ġnull ptr
Add r
99 9
Ġ= ======
act ers
oper ator
ĠCON TR
Ù Ħ
ro und
Ġt ri
in c
, $
z ip
Icon Error
Ġa uthor
a ut
Ġpro duct
m u
Be fore
Id entifier
AT CH
ĠMe thod
M ulti
V ertex
Ġ' '
PAR AM
Ġo k
M ath
Ġex ists
IconError Encoded
v s
spec ial
Q t
mb ers
re spon
ist ics
Ġ4 0
P r
ORD ER
Sh ape
he me
Ġde c
not e
Ġ ĊĠ
m k
Ġ$ .
ĠN umber
f ixed
Com mon
ĠI F
ateg y
S UB
on ce
h i
ĠL ICENSE
ĠS QL
Name space
č ĊĠĠĠĠĠĠĠĠĠĠĠĠĠĠĠĠĠĠĠĠĠĠĠĠĠĠĠĠĠĠĠ
ĠC ELL
ĠArray List
Ġso cket
Ġs u
" `
ubl ish
ä¸ ª
Ġbu ilder
Ġac cept
con sole
B ACK
Ġ ^
æ ī
ĠRe quest
Ñ Į
E P
cond ition
G O
Ġconn ect
ĠD is
F in
C UR
resource s
Ġg raph
å Ľ
B its
Ġper form
qui res
E ST
d iff
ĠU N
ex pect
ĠIn put
s y
en code
C ategory
ĠO THER
ĠĠĠĠĠĠĠĠĠĠĠĠĠĠĠĠ ĠĠĠĠĠĠ
BU FFER
Ð ²
la in
action s
urren cy
j Query
BY TE
Ġ Â
re peat
Ġs nd
SS L
T otal
Ġme dia
Ġ( );
> '
ĠI mp
att ach
Ġ( %
id ent
f w
high light
L anguage
T AG
Ġrun ning
Ġex pression
ol ution
N G
Ġp an
aa aa
Ġse quence
Ġw allet
lo or
ret val
EEEE FF
DO CTYPE
S ample
De c
riter ia
ibr ary
cur sor
cour se
Ġi m
c n
er iv
ens ure
Ġv m
Ġbe low
P assword
Ġpar ser
h adoop
Ġr andom
ĠA ct
ĠK EY
Gener ator
OP Y
H R
im ate
ol l
SE L
= -
= (
Se quence
(" #
ache d
ss er
3 77
fore ach
DE X
ag ent
Ġf ill
ĠA b
Ġtest s
ĠM ake
ul lable
Ġw r
Pro to
ĠV al
Ġe st
p are
Ċĉĉĉ ĠĠĠ
utom atic
Ġc op
A lign
Are a
bu ilder
Reg ion
Ġ à¤
B rowser
nap shot
Detail s
object s
pe ar
ĠI tem
Ġp attern
Ġsc reen
% "
Ġ" #
Ġ raw
Reg istry
å į
ĠS ource
k a
ig r
ou gh
Ġs ide
p ad
ss l
pro xy
sp i
nav List
d up
HT TP
ure d
it al
Ġgener ate
/* !
Ġg en
all classes
AR CH
čĊč ĊĠĠĠĠĠĠĠĠĠĠĠ
V EL
ĠC OPY
å ¯
A v
support ed
k t
Ġ' "
A F
P air
p attern
SOUR CE
res ses
Ġop acity
p dev
Ġ es
tr ies
rom ise
P e
ro ute
re v
Ġtr igger
ĠF ield
T K
F OR
O pt
L C
CO UNT
not ify
pe t
Ġ201 4
å º
par ameter
Ġel if
Ġ email
NavBar Font
L Y
th umb
Text ure
ch unk
J S
f etch
Con dition
t v
esc ape
~~ ~~
Ġ' .
valid ate
col Last
sign ature
content s
00 01
St at
Ag ent
b at
g reen
il la
Ġv ol
T UR
ĠJ ava
is c
Ġwh ite
Ã §
B l
un ique
mater ial
ĠWh en
Ġs pan
UR I
__ );
t m
x html
(" /
Con straint
ĠD A
ph y
ext end
OBJ ECT
at ile
TR ACE
cl one
Ġsh ift
o od
C md
Ġde sc
ang ular
Ġvariable s
M at
t ile
mit ted
Ġon ce
Ġi ss
A fter
Ġpoint s
cont act
istr ation
Ġ(! (
Ġoption al
str ict
Se cond
Ċĉ ĠĠĠĠ
Ġlink s
D b
e ffect
ĠC o
Rout e
Date Time
Ġi mg
oo g
fl ush
Ġs ent
Ġs ql
D iv
ar i
Element s
(" \
ul ate
Ġmessage s
Ġc ore
ĠH e
D uration
p in
L S
r uby
l ers
Ste p
Ġ' #
| |
Ċĉĉĉ Ġ
S ync
ch ain
col First
ä¸ Ń
Ġ keep
get Value
ì Ŀ
Ġ0 0
P AGE
v es
lo s
ĠÐ ¿
Ġb ound
mer ge
al pha
Ġapp end
c lock
ĠSt art
line ar
ĠA nd
con structor
INVAL ID
B LOCK
ĠV iew
S G
k s
Û Į
Ġdis abled
Ċ Ċĉĉĉĉ
ic ate
Ġexist ing
: '
Ġfe ature
LIN K
hedul er
Ġa mount
mark s
() ),
r ank
Â ¤
Ã ¥
( /
Ġus b
orre ct
p air
g ative
m al
ĠT ra
C ALL
g if
Ġend if
FUN CTION
Ġcontain ing
P lay
ĠL IMIT
g c
1 01
Ġcol span
Ġb ar
B US
Ġhe aders
G RO
un ch
Ġallow ed
L D
Form s
clu ding
Se ction
Pro gress
Ġin herit
co ok
Ġ6 0
am age
head ing
Inter val
Ġ ×
Ġsub ject
ĠI MP
Ġex tra
al ert
Ċĉ ĠĠ
Y Y
lo aded
s lot
clar ation
fe ed
li k
Ġl ines
Ġ č
Sk ip
ĠP CI
y es
Ġ layer
b le
havi or
arg v
b ig
is Empty
Ġm ov
S o
d m
A ST
j a
OFF SET
un defined
Ġed it
ĠX ML
bl ue
ĠT ask
ĠI mage
ul ation
k ernel
ro ad
IR Q
ĠQ t
Ġch unk
h ip
__ _
ro s
F ree
mat rix
ight s
test ing
gener ated
var s
de pend
F ind
iz es
ĠA uthor
ĠS D
Sc reen
ĠC re
log y
D es
sp end
al ance
P IN
db g
Ġwrit ten
Ù Ī
Ġun til
str ip
Ġp resent
Ġopt s
y cle
l legal
ertific ate
it es
con struct
F B
I SE
Ġp erson
ick et
Ġcont roller
Ġc lock
) ">
A uthor
arch ive
ĠGet s
co very
P Y
al th
] ['
F older
G r
Ġext ension
iag nost
U ST
åľ ¨
) [
RE SS
F ix
Id s
at ible
R ate
F D
W A
Return s
p ow
æ ł
down load
Ġdis able
FORM AT
ĊĠĠĠĠĠĠĠĠĠĠĠĠĠĠĠĠĠĠĠĠĠĠĠĠ ĠĠĠĠĠĠ
cur r
LE TE
C lear
Ġ2 2
DB G
Ġs um
ro ke
ĠM em
____ ____
' =>
Ġp lay
Sh ort
Lim it
quest ion
ces sed
** /
ar ies
ceiv er
G TH
r v
Ġan other
FA IL
d ot
LE VEL
> ';
s ensor
N ormal
Ġs im
Ġin ode
Ġmem ber
is on
5 00
Ġm ac
ph one
s lide
G UID
V R
du ce
ic a
Ġmet adata
a ff
Ġb rowser
ĠT e
ĠH andle
em ent
â Ķ
V ideo
A X
Ġs b
W M
B ound
con s
Ġto o
H AS
itu de
te gr
V olume
: (
T ile
check ed
ĠIn dex
ir d
Ġ REG
la ve
sl ider
use s
Ġs ite
Com ment
Ġ ë
in f
Ġe q
in ux
gn ore
H O
s ingle
id ate
Ht ml
view s
T ri
CON TR
clu ster
ĠLe sser
A li
ĠW rite
Ðµ Ð½
getElement ById
Ġmax imum
Ġcon tribut
ĠHt tp
Ġpre v
S ingle
ook s
ĠG oogle
Ø ª
V O
D im
Ġstring s
Ġcurrent ly
Per mission
se quence
$ _
ĠRe move
MB OL
æľ ī
MB ER
ĠM od
De pend
ĠHT TP
Ġover flow
P K
CO M
Ġs imple
L ower
ser vices
ĠR un
Ġp tr
ĠB Y
PH P
n il
Ġre moved
Ã ł
& &
Ġinclude d
comp are
; "
ãģ ®
H AL
Ġup dated
ook ie
Ġsc roll
inte ger
Ġd uring
f actory
bo se
=" <?
ĠD MA
d k
ĠB e
Be an
bl k
Ġst at
Pro ps
ateg ories
Ġ layout
r ic
change d
Ġw idget
t ure
ag ing
ue st
pc i
** *
re st
de g
p b
Ġd ay
g ui
ĠTH IS
Ġat t
ĠS Y
li er
oo se
mp t
Ġ[ [
ĠD et
Ġso ck
LI ED
Ġe ffect
ifi ers
and s
TR AN
Ġuse s
m apping
L IC
Ġcom ment
l ush
w x
c ircle
redential s
d x
Ġneed s
Ġm ost
DI O
ck er
mb da
Ġ( &
d atabase
al ar
ME THOD
P D
Ġtrans ition
if ies
d uration
y ear
ĠN e
s peed
Ġh f
Draw ing
Collection s
ĠS tr
> \
D river
Ġsh ape
A W
5 12
P op
Ġw arning
ax is
w arn
Ġw ere
Ġlo aded
Ġa void
em on
re mote
> :
Ġreg ion
av es
ut down
Ġcomp lete
Ñģ ÑĤ
D ay
requ ency
ang er
ar p
ee e
($ _
ĠB oolean
de code
d irection
'] ))
AT OR
ĠA T
Â ¡
Pro p
AT URE
pend ing
ec lipse
Ġ' ,
del ta
vol ume
s imple
age d
re sp
I MP
__ )
log o
ĠN S
.. .</
Ġv ideo
TUR N
ĠH el
H AND
Ġme ans
LEN GTH
b asic
> "
Un known
time stamp
p d
Ù ħ
ĠRe act
I Z
g i
per i
look up
Render er
PO S
Ġp ower
L at
ä¸ į
ĠB UT
Ġset s
R PC
FR AME
con vert
last ic
ĠO UT
Ġrequest s
ĊĠĠĠĠĠĠĠĠĠĠĠĠĠĠĠĠĠĠĠĠĠĠĠĠĠĠĠĠĠĠĠĠ Ġ
F ALSE
ans w
: \
Ġa wait
Ġent ries
ĠT YPE
Ġtype def
LO B
Ġcom mon
ĠC PU
Ġb us
å Ĩ
ĠRes ource
S top
> )
Ġm ight
ãĥ ¼
z er
Ġblock s
t cp
Ġ(( (
n i
column s
SY MBOL
G PL
f lat
Child ren
ĠBu ild
Ġap pro
ĠDA MAGE
Ġst ill
m ulti
Bu f
c ancel
Ð° Ð½
Ġst orage
W orld
čĊč ĊĠ
U ri
MA IN
ĠS E
Ġde p
Se c
to uch
ter min
f older
RES ULT
Ġnav igation
Ġ" ;
Ġhe ad
Ġvis ible
Resource s
Ġver ify
201 5
ffff ff
OR K
I t
ĠM odel
ĠBO OST
ĠN AV
Â µ
in v
ĠW IDTH
DI V
Ġlist ener
A CTION
P rivate
ĠM y
en ers
B r
Ġe ase
Ġpro p
å ĩ
ĠC OL
de precated
G A
ot ion
web pack
Ġp ixel
iz ing
IS C
t bl
P LAY
-------------------------------- ----------------
Ġp ipe
Ġd irection
Ċ ĊĠĠĠĠĠĠĠĠĠĠĠĠĠĠĠĠĠĠĠĠĠĠĠ
Ġ" >
re store
ĠI d
Ġun ique
ĠĠĠĠĠĠĠĠĠĠĠĠĠĠĠĠ ĠĠĠĠĠĠĠĠ
ĠO per
Ġ' _
g y
ĠE VENT
Ġchar acters
an e
ãĢ ģ
ĠP R
map s
Ġse lection
Ġext ernal
ĠP h
ap er
ref s
er ved
fa iled
_ )
ĠPro ject
Ġ low
or iginal
ch or
p ixel
Ġt imer
ri end
p df
Ġy et
Ġme ta
Pro gram
Ġm erge
Ġex ecute
R F
po se
00 2
Ġre ason
Ġc b
vert ical
get Id
En able
sign al
link s
Ã ¶
j unit
Ġfor ce
D M
Ċĉ ĠĠĠĠĠĠĠĠĠĠĠ
ress ion
REQ UEST
DO M
ĠT ABLE
ac cept
Ġc luster
if orm
sh are
ĠC al
ed ge
pe g
Ġp air
SS ION
st derr
Ġcall s
attr s
Ġd iff
cre ated
201 4
_ );
Ġ ##
Ġ rows
AT ED
Ġspec ify
se lection
reference s
Ġc lick
l arge
ĉĉĉĉ ĉ
å Į
Cur sor
{ $
Id x
Ġid ent
let on
Ã ¼
S ql
iss ues
ĠB lock
tr im
G en
Ġ2 1
option al
Ġg rid
E mail
r al
P a
Ġus ers
Ġse c
or igin
>< !--
Ġpro tocol
element s
ĠSer vice
o ard
AN T
ĠS pec
o ice
res olve
Ġh old
ava i
Ġ2 3
st mt
ĠT able
ation al
Ex port
Ġch ain
App end
De cl
Ġcontent s
BU ILD
w atch
py thon
Ø ¯
u uid
d irectory
ĠC HE
F N
ĠN E
x t
m un
assert True
LA B
ra se
" \
' ):
Ġ_ ,
for med
Ġg u
il ities
form s
ĠA V
ĠIMP LIED
é ĩ
Al low
DO WN
NO DE
Ġc ls
Ċĉĉĉĉĉĉĉĉĉĉ ĉ
P ass
cl us
sp ring
! =
tool tip
$ $
Ġchild ren
h l
Ġ" );
mit ive
L ook
r ont
mi ss
Ass ign
Ġat om
cd n
Ġspec ial
serv able
f ly
Se e
Ġc ard
ac c
mon th
mi se
A udio
ĠH AL
Ġen coding
Input Stream
cal endar
ĠA ction
ad a
Â ĥ
Ser vices
Re al
ĠP ath
u f
an imation
dis k
trans action
Ġselect or
p v
Ġp ool
C ounter
Ġpage s
arg uments
m id
Ġcorre spon
F n
Ñ ĩ
at ar
ob ile
ĠSet s
z y
second s
-- ;
P ixel
In sert
D irect
set ting
Require d
Ġs d
( %
w m
G ui
Ġp a
Ġpro xy
u pt
CONTR OL
USE D
Ġd rop
Ar t
C luster
Test Case
test s
h and
W ait
f lu
å ¾
ĠAr g
qu are
Ġh app
Ġv ec
kw args
Ġre mote
ĠDesc ription
P TR
ĠU I
Ġm apping
rep ly
Ġt ake
A xis
ĠF T
f il
Ġread only
Ġk now
DE D
d ig
read er
End point
du ction
Inst all
Ġ" '
Ġg ame
c li
ĠCHE CK
æ ³
æ Ŀ
res ize
de cl
e quiv
pre pare
aw n
Ġc ounter
b on
EN CE
BU F
pre t
================================================================ ========
B C
ĠN et
Point s
PRO C
T ARGET
ut ed
B inary
m ag
T y
ĊĠĠĠĠ ĊĠĠĠĠ
Ġ1 02
Ġ ensure
F low
trie ve
Ġs peed
L iteral
C opyright
ĠLIMIT ED
Row s
Ġre ct
ĠEn able
Ġun less
p data
v endor
Ġassert That
Event Listener
J oin
pk g
He aders
as sembly
k er
S u
ĠP re
t le
D V
v let
Ġc lasses
Ġinit ialize
s core
ĠD ocument
il li
Ġstore d
ç Ľ
get Instance
( \
STR U
Method s
// !
Re set
IN DEX
ĠS C
Ġde s
Ġf ixed
IO Exception
Ġsc hema
Ġhe l
Ġde lay
D P
Ġ' </
ĠOut put
ĠC an
s ass
var iant
inter val
s im
b ra
int el
ex ist
Ġcolumn s
ĠNAV BAR
C ast
ï¼ ļ
s q
Ċĉĉĉ Ċĉĉ
can vas
Ġ>> >
St atic
temp t
En ter
P lan
message s
S ymfony
ĠLo ad
ate way
block s
Con structor
Ġab stract
anch or
main ing
es h
s nd
ĠU SA
our se
n ail
d w
b atch
ud o
.... ....
ic o
Ġc la
g ht
Ġin struction
» ¿
pro gram
Ġdistribut ion
select or
ĠC all
or p
A MP
loc ale
cess ary
Ġg ot
F ragment
Enum er
Ġsign al
Cont act
word s
method s
ur s
Ġ' -
d isp
UB LIC
ext ension
p resent
== =
ip her
CRE ATE
om ent
Ġm any
RE D
er ies
Ex ample
ĠSt ate
Ġf s
ï »¿
ent ries
Ġall Classes
sw ing
er ic
ist ers
(( (
ard ware
Ġc r
} },
ĠallClasses Link
trans late
æ ŀ
Ġpro gress
B asic
OPT ION
Ġmat ches
O C
> ../
-------- --
H igh
Ġfail ure
F ocus
Al loc
ĠD ATA
gener ate
Ch ain
Ġp ush
R M
ur al
ĠRed istribut
p lot
ĊĠĠĠĠĠĠĠĠĠĠĠĠĠĠĠĠĠĠĠĠĠĠĠĠĠĠĠĠĠĠĠĠ ĠĠ
Ġpro file
Ġm ut
Ġb ad
Ġ ..
Frame work
per iod
čĊ čĊč
G IN
D Y
ä ¼
AR RAY
Us ers
ä» ¥
Ġd ict
File Name
mm utable
8 00
pro vider
Ġa utomatic
lic ate
ĠB E
ĠCol or
11 1
Ġem it
I ME
OR TED
ar sh
O wn
Ġ` `
á »
H OST
v i
ter s
Ġtag s
FUN C
ĠC lient
e ver
FFFF FF
Ġ" _
f ire
Ġvert ical
EN C
Re lease
(' <
Argument Exception
Ġs plit
if est
Ġline ar
Ġcell padding
Ġal pha
Mem bers
L ib
urn al
Ġo wner
ro ut
ĠE d
os ite
h c
RO OT
æ İ
se g
b lob
Ġcell spacing
rt l
C ard
em it
m ux
è ¦
dec oration
Ġ er
! [
Ġle ast
velo per
+ "
al ias
H D
( .
i os
te ction
B ool
ick s
M ake
ap os
c ing
PL L
Ġc p
ĠCol lection
ĠLI ABILITY
R aw
ĠĠĠĠĠĠĠĠĠĠĠĠĠĠĠĠ ĠĠĠĠĠĠĠĠĠ
R et
Ġf older
ĠQ gs
C la
201 1
Back ground
Ġb g
Ġsk b
Ed ge
e h
ĠP age
An imation
ar io
ĠV er
ĠE lement
z on
l ider
ĠO P
R GB
ĠG roup
ĠCOPY RIGHT
ç ½
DI RECT
S PI
T F
config uration
ĠÐ ²
over view
as y
ä» ¶
Ġst andard
{ \
full y
our s
+ =
S m
Object s
am az
li o
Ġed itor
es ome
exp and
P ower
Ġs ync
Ġ{ },
Ġa xis
S pan
Ġ ĉ
ĠVAL IGN
Conn ect
Ġd id
Ġre ader
Ð¾Ð ²
li ke
IN PUT
r f
Ġresource s
s leep
fe atures
201 6
un def
Ġ{ %
AUT H
; ;
ĠWindow s
ĠS ome
string s
it ed
nav igation
Bind ing
p atch
ĠM O
Ġf printf
D rop
B A
ap is
ct r
h f
Ġvalid ate
road cast
Ġde scriptor
Ġp ur
re et
Ġ? ></
ĠEx t
Ċĉĉĉ ĠĠ
ĠPro cess
Ġ201 3
m ult
Ġro ut
Ġc fg
æĸ ĩ
Ċ ĊĠĠĠĠĠĠĠĠ
d n
å ½
Ġ& #
S ummary
P ublic
Not e
Log in
Ġt s
M R
SER VER
Ġ lower
Ġk ernel
' \
Ġa udio
2 000
12 3
N ative
T erm
ĠSe lect
sc hed
De legate
Con verter
ĠS w
lik ely
Ġv olume
C G
V ec
Ġ que
U Int
ord ing
In v
g on
d ash
ip s
Ġmodel s
Sh ared
label s
Ġis set
f ra
cook ie
In s
d ark
Ġin cluding
F ace
In formation
SS AGE
amaz on
ĊĠĠĠĠĠĠĠĠĠĠĠĠĠĠĠĠĠĠĠĠĠĠĠĠĠĠĠĠĠĠĠĠĠĠĠĠĠĠĠĠ ĠĠĠĠĠĠĠĠĠĠĠ
s pell
filter s
copy right
ĠCom mand
ĠCh ange
frame s
å® ļ
I I
ĠV ar
rep are
w ake
åı ¯
Group s
Ġtime stamp
W ER
F G
an a
Ġenv ironment
ä ¿
N EL
6 00
so me
AP P
Ġd ist
ific ations
CODE C
const ant
Message s
Ġr ate
lib s
TO M
pk t
C trl
] </
Ġ-- ></
ĠCont rol
err no
C l
ed s
Ġdel ta
Error f
H older
V T
r pc
tool bar
ra in
load ing
se m
Ġf ace
GRO UP
writ el
MM ARY
ĠA UT
Ġan imation
Ġm ouse
ĠF rame
D TD
ul k
I gnore
Ġm s
Oper ator
mat ches
) }
Ġ enter
G LE
function s
v p
rag ma
Ġy y
B ook
Ð ¿
Ġ/** <
\ -
d rag
Ġ201 7
Ġus age
Ġexp licit
create Element
Ġd i
os er
reser ve
RO W
ser ial
j ax
PH Y
Top ic
SER V
li es
d anger
ry ption
ĊĠĠĠĠĠĠĠĠĠĠĠĠĠĠĠĠĠĠĠĠĠĠĠĠĠĠĠĠĠĠĠĠ ĠĠĠĠ
B order
č ĊĠĠĠĠĠĠĠĠĠĠĠĠ
Ge ometry
ordin ate
R andom
N ON
ĠRes ult
li m
script s
S N
Ġf actory
l v
sub ject
Th row
fr ont
Ġf d
ins n
Ġet c
w b
à ²
s id
ĠA DC
Ġad min
ug gest
mach ine
Ġare a
h o
u ce
n of
Ġ' ''
Us age
b and
Ċĉĉ ĠĠ
ph ys
Ġpro ps
comp ute
W allet
Z one
ilt in
Ġw ell
for Each
Not ification
gener ic
Ġar ia
G u
Ġse par
UN K
ĠIn st
ĠS TR
De v
Gener ated
alle l
de s
Ġn ative
numer us
mo re
numerus form
s ym
Ġ à¦
Loc ale
in a
] ),
pp ed
A p
ĠP rint
Comp lete
str cmp
av ing
t i
B T
, ,
IT S
ĠS end
Se gment
sc hedule
12 7
tw itter
iv ely
/ .
sh a
ĠL ink
LO T
avai lable
Ġ Ø
Re v
Column s
de scriptor
ĠAb stract
pr ice
H W
D el
def er
Ġed ge
ILE D
IF Y
Ġs printf
Tag s
ĠI llegal
KERN EL
Ġid entifier
am ount
Error s
$ .
get String
init ial
LOB AL
Ġp ayload
st ar
ĠC A
lap sed
sw arm
RE AM
and ra
ĠF ind
Co ord
Annot ation
Ġ_ .
Ġrot ate
` )
li brary
' },
vo ice
ĠBu ffer
è¡ Į
Ġrequest ed
str iction
ge ms
Î ±
Ġz one
ĠO ther
un der
Re mote
ĠA c
i ke
Ġsh ared
us age
t ax
. """
Ġs upp
ad s
LE D
date time
Ġs pell
n x
ä¸ º
ct or
Ġc ref
Ġoper ations
k free
P G
Set ting
ĠSer ver
p ayload
D rag
Ġm o
Menu Item
Ġsc an
M AN
ĠOption al
ĠAdd ress
Ġstr len
Ġs lot
DE P
Ġ Ñģ
Process or
pe er
Ġ' ./
ad io
IG H
se gment
Ġm anager
ĠW ork
eriv ed
ĊĊ ĊĠ
Que st
p ic
P lace
W ORK
ser ialize
col lect
Ġcommand s
over lay
comp ile
wild card
R UN
lu a
Ã Ħ
ĠG ET
Ñ ĸ
set Text
PRO TO
Ġdirect ly
mob ile
ĠBy te
lo ts
ver ify
ĠR T
Ġs ig
Ġsecond s
Ġ3 1
Ä ±
CON NE
æ Ķ
un g
ĠQu ery
å Ģ
ĠS p
å ¸
h istory
wh en
Valid ator
Ġde scribe
vent ory
Ġ( __
.* ;
up press
Not Found
Ġse q
Ġ( `
ĠD OM
m alloc
Ġd ynamic
il ation
st able
B atch
in o
ouse l
ĠSU MMARY
class Name
> ";
Ġ' $
* (
ase s
R D
=" '
Ġ2 8
te am
Con sole
q t
mem cpy
top ic
Â »
Ġs aved
Ġun known
) +
Ġar r
ass andra
ĠD ec
* -
Ġco q
Ġconst ant
; |
u la
Ġp l
h p
čĊč Ċĉĉ
è §
H ome
u ed
%%%% %%%%
ab ilities
refer red
P latform
Pre v
over flow
Ġm aterial
Ġre sp
wild fly
QU AL
50 9
c ert
LO AT
time s
ier arch
ordin ates
12 5
MA KE
="../../../../../../ ../
sn ap
;& #
P od
A mount
D irection
R ot
id ual
De pth
Ġre ceive
it o
ĠI R
Ġa ut
Ġbe st
Ġb in
Ġp olicy
w t
f ast
O wner
Re q
ĠPro perty
atal og
å ¹
Ġin side
Ġd ialog
OL DER
Ġpan el
X Y
Ã Ĳ
spring framework
B ounds
ĠS V
ĠM an
Ġpro vider
æĹ ¶
, %
ine ss
> ;
Ġdest ination
m x
Ġt sd
SO C
ĠST ART
I A
Comp ar
} ",
H and
aw t
SR C
mm c
ITE M
ĠT IM
ĠEx ample
ĥ ½
Valid ation
p ersist
SP ACE
Ġse gment
Ġex tract
th at
ex pression
c g
pag ination
ĠSPE LL
AL LOC
Ġm issing
b h
ĠÐ ½
Ġend point
ĠSe arch
ch at
Env ironment
C ancel
æ į
Ġ util
Ġr untime
201 3
av er
í ķ
em bed
Ġmod ified
Sh ader
ĠOn ly
d jango
PRE SS
Ġcom mit
Content s
OP EN
Ġb lack
CT OR
N R
Ġcon straint
Ġr t
ĠS imple
b eta
Ġiter ator
ly ing
× ķ
pre vious
s ent
C U
Ġp riv
Ġmatch ing
Ġf i
ref resh
process or
e ff
De lay
Pan e
=- =-
Â ·
PR INT
å ·
Ġter m
I ENT
Ġ2 6
mar sh
ĠUn it
Frame s
ĠTh read
Ġd at
ĠConfig uration
ĠĠĠĠĠĠĠĠĠĠĠĠĠĠĠĠ ĠĠĠĠĠĠĠĠĠĠĠ
ĠDE BUG
++ ++
S yntax
è Ģ
N L
S rc
oot er
ENO MEM
channel s
Ġp in
8 000
m v
mov es
æ Ģ
t ar
red irect
ĊĠĠĠĠĠĠĠĠĠĠĠĠĠĠĠĠĠĠĠĠĠĠĠĠĠĠĠĠĠĠĠĠ ĠĠĠĠĠ
(" .
mem Item
rep o
Ġth ose
w iki
" }
Ġinst alled
n c
ACT IVE
e a
unk nown
Ġl at
g ot
answ er
add Class
h ook
S IGN
ĠC L
ol ved
e ded
ĠC SS
Ġf lex
T T
Ġtra ce
Ġ201 1
) ',
w orld
U A
Ġpri mary
IB UT
B us
S lot
ĠAs sembly
Ġro ute
OUT PUT
Î ¿
n v
act ual
pc m
RE A
Ġno thing
ĠM ax
čĊĉ čĊ
Ġst ats
ĠCh ar
Ġ1 28
sw ap
if act
Ġ2 7
/> .
ct ree
view port
Imp lement
ĠF ILE
Ġf etch
ir r
ĠT EST
out er
Ġ201 6
co s
al og
é Ĺ
RE SET
ĠF ilter
Ð° ÑĤ
Ġlog ging
SE C
Ġw orld
---- -
ME SSAGE
Ġ( [
G ER
ex ecut
l x
if e
Be gin
âĶ Ģ
ate st
00 5
ĠU til
ĠD I
let te
Sc an
ĠO p
Ġallow s
get Type
ud it
In struction
H istory
//////////////////////////////// ////////////////////////////////
N ow
;| &
local host
G oogle
15 0
com ments
arg ument
Fail ure
Ġne ver
op acity
b lack
Ġy ear
Ġper iod
loy ment
Ġup per
bu cket
ale s
Ġf oo
n n
Ġtime s
Ac cept
Ġ8 0
able s
l c
Ġg tk
IT LE
r dev
rule s
AR K
m ysql
Mon th
Res olver
Ġrule s
Ð ·
j i
c atch
201 7
ĠDe lete
ĠA C
s amp
ĠO S
H S
ak er
Time stamp
Ã Ĭ
en o
ĠPH P
ĠU INT
Ġ" )
Ġ(! $
ib ling
Ġl iteral
ĠTh ere
Ġs ynchron
Ġm ade
Ġp lan
Ġap pear
Ġcomp are
æ Ń
G U
Nav igation
Y ear
Ġp ending
ĠRes erved
Ġ201 2
EG ER
p f
s un
d ispatch
- %
t un
re gex
Look up
igr ation
Cont ains
b um
ĠCont ent
pop up
(' ./
[ (
Ġd uration
Ċĉĉĉĉ ĠĠĠ
C loud
Part ition
Ġre d
Ġv ir
Array List
respon sive
Control s
ĠRe ference
ĠC ustom
PO WER
ĠInter rupt
Ġpre vent
Ċĉĉĉ ĠĠĠĠ
Ġs ummary
Ġk ind
Ġi rq
:: _
D iff
red icate
pi ct
CHAN GE
PC I
ab out
t im
Ġplace holder
li ct
x l
Ġt ile
ĠM icrosoft
Ġcall ing
ind ent
* >
PO INT
Ġ čĊ
R ST
Lo op
Ġle ss
Ġinter val
S plit
ist ic
Execut ion
Ex ists
s in
M aterial
en coding
( ['
velop ment
× Ļ
Map per
pr ite
post s
Ġ esc
le s
P oly
Ġ Ċĉĉ
cl s
Ġne cessary
L P
Ġcl one
ost on
N A
ĠG O
le v
Ġc ategory
Graph ics
Ġuser name
HEAD ER
"> &#
n ative
Ġd istance
Ġautomatic ally
RE C
ĠComp onent
Ġre quires
c orrect
Bu cket
F ixed
ĠL ong
control s
r and
e th
se ss
A rr
ĠI ter
ud ent
aw esome
D isp
se parator
Se parator
ĠLoc al
m f
Ġ" [
Ġ" +
ur b
"> (
ĠPar se
Ġmon th
Ġ engine
Str ategy
PRE FIX
ENT ER
st a
Ch art
V IE
Ġpart ition
re act
ĠH AVE
iv ers
Ser vlet
A U
Ġor igin
he x
Table Row
AR M
_ [
c red
ĠRe sponse
UN IT
theme s
ĠCont ext
ff ers
Ġcop ies
) -
\ _
---- --
ĠP M
CON T
widget s
En coding
Ġ5 1
Ðµ ÑĢ
ĠDo uble
face book
* ,
MS M
c x
Ġprob lem
Ġlook up
F ore
fo lio
M UX
Q UE
ĠG e
Ġd ie
æ Į
igh b
aly t
ch a
tr ansp
w riter
F ill
all ery
=" {{
Pe er
co gn
ĠP lease
co ped
he m
è¦ ģ
Ġpro per
Ġb oost
OL D
ADD ING
Ġr x
rid ge
Ġcont act
la re
WARN ING
uff ix
w all
ĠCreate s
Ġ( -
valid ation
ĠS O
à ¹
Ġ* );
ĠM in
Ver ify
Ġj oin
LOC AL
Tr igger
Output Stream
P OL
Ġres olve
G LOBAL
é ¡
../../ ../../
Ġnav bar
valu ate
ë ĭ
De precated
Ġd t
ab c
Ġ$ ('#
C LE
Â ¥
Ġgr ant
'] .
Ġ< -
Ã ¨
DIS ABLE
m r
LE FT
ĠInit ialize
struct ure
RE TURN
ĠB oston
Ġde scri
Ġ` ``
i ally
CO RE
loc ity
pl us
Ġli ght
FA ILED
C tx
Ġc or
' m
Â ¼
å¯ ¹
' d
Re place
12 34
" /
Î µ
M ov
B D
Ġnot e
SY NC
Ġpro c
/ ****************************************************************************
} '
? ?
Ġclass Name
ĠL L
ĠM IT
text area
f rag
Q ual
Ġ" ${
T uple
V irtual
get Message
Ġstate ment
Ġ âĢ
Â Ĥ
19 2
ĠM odule
Ar ch
p ragma
gener ator
c raft
Ġsign ature
Ġp lease
ĠIn valid
int err
Ġ ut
g g
on es
Ċĉĉ ĠĠĠĠĠĠ
Ġb atch
vance d
Arg uments
Ġ1 99
t head
P AD
am ma
Ġdis k
CL U
Var iant
r an
Ġd iag
G o
Ġde pth
io ctl
Ġpart ic
Ser ializer
- $(
ĠP ort
Ġcorrespon ding
Ġ) {
ĠĠĠĠĠĠĠĠĠĠĠĠĠĠĠĠ ĠĠĠĠĠĠĠĠĠĠ
Dec imal
Ċĉĉĉĉ Ġ
C ID
g ers
L ight
Ġpar sed
CON F
Ġcomp ute
1 10
') ->
S um
Ġe v
At tach
Ġass ume
SP AC
S ame
z ure
act ivity
ĠE V
e val
Ġ7 5
tr fs
Ġt body
Ġc ar
Ġm aster
V ert
Ġc ert
cla imer
Ġcomponent s
p at
Ġj s
oc ation
= [
Ġm ag
ĠM E
N ullable
Ex ternal
(" [
\ '
tr ansport
. )
S ite
o h
part ition
oun try
coun try
Ġw riter
Char acter
ĠL ay
12 0
Cre ature
cap s
mal ink
Ġs n
ĠThe se
Ġgo od
NO WN
interr upt
up per
ch r
re ason
ĠS ER
T OP
ð Ł
Ċĉĉ ĠĠĠĠ
IS ING
ĠM ain
di ag
to Be
VAL ID
B ig
c am
XX XX
/ </
Ġthe me
ĠP O
Ġcase s
P ADDING
g id
ĠF e
% "><
ĠU RI
ĠL ine
ST REAM
Ġser ial
co ut
ĠIN CLUDING
Ġ5 00
Ġ! (
Up load
Over view
per mission
or ary
ĠDAMAGE S
FIL TER
Ġc over
Ġcheck ed
EN S
Ch unk
<< <<
Ġb asic
f lash
S ide
ak ing
ãĤ Ĵ
Ġadd resses
Ġt urn
Mon itor
ĠPRO VIDE
CHAN NEL
D istance
L ibrary
ĠPy thon
/ '
Ġf ragment
ĠSt ream
Ġexport s
ç ±
on d
Ġd up
pro be
l b
Ġd a
get Attribute
Ġ/ ></
F atal
p erson
ro om
log ging
lastic search
ĠLog ger
Ġ' ')
Ġ' @
c amera
Tr ansport
Ġle g
o i
b io
Ġfe atures
} </
# {
Ġrel ated
CE PT
C enter
Ã³ n
M esh
ä¸ ĭ
Ġm m
Ġre spon
DE CL
é Ļ
Q String
ĠM ock
com ing
re lative
Ġc c
p ix
K it
br anch
i w
> %
Mark er
Ġin ner
ĠP UBLIC
S elf
CA CHE
Ġse curity
Ġ3 3
Sc ene
i ation
IC K
Ġvalid ation
ĠS ize
E MP
Ċĉĉĉĉ ĠĠ
Ġ ĊĠĠĠĠĠĠĠĠĠĠĠĠĠĠĠĠĠĠ
W IDTH
Ġlog in
ĠJ son
Str ip
common s
std lib
alt Color
Ġvis it
P ipe
Ã ¸
Ġan not
r w
A tom
ĠM on
ç ¬
gt k
TER N
ĠS to
Re st
ĠApp lication
H ub
Ġd w
ä½ ¿
or ig
Ġsome thing
q p
äº Ĩ
xx x
Ġ- *-
d y
comp lex
An gle
T ON
Ġfin ally
AS K
ank s
W r
Ġex pr
pri ority
F ACE
rint f
Set up
> ()
ç ī
E mit
br id
d entry
Ġm iddle
M aster
P ersist
i j
c urrency
č Ċĉĉĉĉĉĉĉ
par ts
Ġmodule s
// ----------------------------------------------------------------
Id entity
>( <
pri ate
code s
f av
ro uter
Ã º
/ %
25 0
DE SC
is m
P erson
m iddle
¦ Ĥ
TR A
M gr
Ġre st
COMM AND
mem set
lo de
end point
/ )
rypt o
ĠPROVIDE D
e k
il ar
:: $
ENABLE D
Ġ201 0
get Class
F actor
su spend
Ġend l
Ġd om
TIME OUT
ser if
Ġarg v
EX P
g oog
ĠC ore
comp any
The me
ON LY
D om
i oc
ãĥ ³
Z ero
() ">
! (
allow ed
Ġd isp
r p
ic ator
d ynamic
ĠCon vert
ĠB ORDER
ĠSH ALL
peri ment
Ġca use
back end
z oom
Â ¶
Ġme an
rt c
G UI
m ost
as ing
Ġk w
def inition
ffic ient
s By
RE NT
SE SSION
Ġprocess ing
Sw itch
MO VE
ING S
w q
ĠP AGE
NE W
Ġpri ority
Ex pected
Sh ould
Ã ª
In ner
c lip
E B
pol l
C AL
con cat
Ġen c
Ġ102 4
cur sive
cip ient
Ġg re
At t
EN V
Ġb old
Depend ency
Ġload ing
Ã£ o
ORM AL
ĠG FP
C annot
AUT O
3333 3333
flu id
M issing
// #
table s
lock ed
F ROM
J ECT
ĠDE F
ä ¾
clean up
Ġact iv
ĠF ix
AD C
sub str
Ġis n
SPAC ING
il ing
% ">
me mbers
ĠH ow
Pri ority
los ure
and idate
ĠC lasses
ç± »
ĠT ag
em u
C apture
Ċĉĉĉ ĠĠĠĠĠĠ
ADD RESS
ĠDate Time
sub string
ãģ Ļ
Ġcon struct
Ġde leted
F X
Action s
bin ary
' ><
Ex ecute
us ic
Ġ_ ("
18 0
t or
Ġ arch
Tool s
An im
Ġreg ard
l int
d hd
en a
car ousel
Can vas
ĠR untime
OT TOM
oper ation
Ġon click
Ġat tach
Per iod
Ġb oot
ĠCONTR ACT
="# ">
ĠS upport
Cre ated
Ġcal cul
P romise
Ġgroup s
ĠV M
im ize
AR B
St andard
Ã İ
De p
ctr ine
Ġ uri
Ġdepend encies
f actor
F LOAT
un likely
ĊĠĠĠĠĠĠĠĠĠĠĠĠĠĠĠĠĠĠĠĠĠĠĠĠĠĠĠĠĠĠĠĠ ĠĠĠĠĠĠ
Check ed
pol y
Ġpart s
Ġb ig
ĠF IX
Ġit self
k o
alyt ics
ĠLI ABLE
ierarch y
an te
greg ate
an ization
ern et
Ġg oogle
D ynamic
d ummy
f it
Ã ½
Ġcomp iler
Ġ ĊĠĠĠĠĠ
s aved
button s
Option al
W ISE
C N
Ġrepresent ation
Ġtrans fer
G uid
Ġs ender
Ġis instance
æ³ ķ
al ent
Ġexecut ion
Ġc s
Â ±
"> '
A ura
U int
Ġact ually
Ġm ulti
å ī
ĠS UB
ab solute
Ġf low
Ġd ue
åĪ °
Pro c
ializ able
default s
sm art
IN CLUDING
P ASS
ĊĠĠĠĠĠĠ ĊĠĠĠĠĠ
ic ation
i sed
ĠGener ated
TableRow Color
B in
Ċĉ ĠĠĠĠĠĠ
Ġr s
Support ed
ent ion
DE LETE
Data Type
Ġp ack
ĠAR ISING
DR V
run ning
Ġstart ing
ac l
ĠC lear
Ġg p
cache d
Ġdis claimer
---- ---
HE THER
R ATE
at ter
F act
att le
C a
h u
not ification
ĠAn y
P ush
ä¸Ģ ä¸ª
ĠU s
in u
ph rase
W in
ERR UP
cal c
init ialize
net dev
* >(
Con vert
Ġbu g
æĸ ¹
M ut
=" ..
s With
lo ur
ĠS W
Ġpart ial
B log
ant ity
k g
m en
res ume
ĠC R
Ġ" ")
ĠT ool
Ġind ent
rel ated
Ġt p
Ġme mbers
CON ST
Ġassert True
ĠVal id
Ġg lyph
sk top
D one
a N
Ġcur r
è ½
T REE
term ine
f ake
@ @
Ġw rap
] ));
wh ich
FE ATURE
second ary
pan ded
con straint
ĠP ost
to ctree
T er
id le
n y
t ensor
ĠW HETHER
Ġhel per
ĠEX PRESS
l iteral
pre view
Ġcons ider
7 00
Con sumer
per cent
... )
" +
Ġn r
Ġ2 56
Ġ ht
Ġnum bers
Ġ* (
ĠP ORT
Sign ature
Ġwork s
in cip
Ġt uple
op le
Ġ2 9
Rule s
Ġro und
in y
bind ing
n ed
c assandra
Ġcall er
Ġd ig
for ward
Ġcache d
re cv
ä¸ Ĭ
= &
Ġm mc
ĠA ss
------------ -
Ġhapp en
-------- ---
Ġclean up
U ses
Ġtest ing
re lation
div idual
et c
over ride
G C
Com bo
De claration
Mod ifier
â ĸ
up dated
F W
ĠM ark
âĢ Ļ
d en
Ġ qual
u v
Ċĉĉ ĠĠĠĠĠ
VIE W
ap s
le af
Ġ ERROR
IL L
ers hip
é Ŀ
Ġinstance s
Hash Map
Al pha
Ġd r
Ġ" </
ĠD im
à¤ ¾
ç §
Ġs afe
Ġcomp ar
Ġiss ue
og raph
Wh en
CH ED
Down load
le ms
BIT S
ĠN V
Ċĉĉĉ ĠĠĠĠĠ
Ex it
ab ly
t b
US H
M ail
è ¾
has er
S napshot
sc r
è¿ Ļ
ĠÐ ´
t re
if o
Mod ified
irr or
field set
par a
ĠRe set
) },
ĠS PI
Ġre pository
PR I
Ġret val
ĠCol umn
ĠJ S
Ġprovide s
f m
å İ
EE E
AL IGN
V OL
ĠP ackage
S ING
Ġl arge
spec ific
Ø ³
text ure
×ķ ×
D ict
v irt
Re c
ĠU ART
Ġp ull
v g
H I
Ob server
m n
ĠCELL SPACING
ĠRedistribut ions
up al
U V
ĠC S
ĠCELL PADDING
EN U
INST ANCE
medi um
Ġimage s
mon itor
Ġp s
mark er
set Attribute
Ġf uture
B ottom
==== =
f printf
Ġp c
ĠP AR
WA IT
+ '
ĠAnd roid
Comp iler
end l
b x
Ġde vices
Ï Ħ
Ġ3 5
< >();
un e
nof rame
do cker
config ure
are t
ĠG u
ma zon
Ġmin imum
Â ³
ue l
Ã ĸ
n el
ĠHash Map
: -
P ress
Ġc ast
Ġy ield
ĉĉĉĉ ĉĉ
Ġt cp
ĠI L
Ġs y
LE MENT
à¥ į
D ispatch
ĠÐ º
w br
Ġ utf
ĠB SD
âĶĢ âĶĢ
ĠB IT
b as
++ ]
BO X
el if
=".. &#
FIL L
s yn
Ġxml ns
in et
Ġregister ed
Ġenum er
ip v
md p
M IT
S peed
Act iv
at ibility
Ġin set
Ġal ert
if rame
O ther
Ġsupport s
ĠS ec
sc ene
Ġversion s
ĠSPE CI
li j
F uture
à ¯
Ġd en
vid ers
AME TER
pict ure
ĠOTHER WISE
an im
b re
ĠDe bug
ĠP layer
app s
Ser ies
å ¦Ĥ
Ġse g
Ġdate time
Ġw aves
o logy
ance ll
br and
ĠG ame
Ċĉĉĉĉĉĉĉ Ċĉĉĉĉĉĉ
Bit map
Ġd ot
Task s
Ġbr anch
S im
" ])
h ave
D r
$ /
c ategories
po i
Ġw p
="# "
C SS
000000 01
d td
Ġ9 0
Ġ3 00
Ġpath s
, .
ĠĠĠĠĠĠĠĠĠĠĠĠĠĠĠĠ ĠĠĠĠĠĠĠĠĠĠĠĠĠ
Ġl l
() [
ch rome
Ġw in
W ITH
ĠA ccess
Ġdest roy
S F
oun ce
Ġp ub
AA AA
Ġpe er
RO P
Lower Case
PRO PER
C amera
-------- -
l and
Ġagain st
ĠT ORT
Rel ation
Ġre lation
Ġen ough
g uid
sp rintf
Ġe p
Ġp id
Ġv ery
ĠV is
ĠA uto
C LO
t age
Av ailable
=' #
C ould
font s
TO OL
Ġre direct
T ensor
IN TR
iagnost ic
Ġpri or
Ġc ancel
Ext ensions
Ġalloc ate
2 34
place holder
Ġ* =
)) {
Ġt w
Ġad apter
tr ain
HAND LE
t g
D at
å ±
em ents
Ġp ol
10 24
th reshold
numer ic
/ {
list ener
Â °
W atch
or th
Ġs a
char set
ãģ Ĺ
ap on
Ġa m
g ov
Ġt re
ext ensions
Del ta
Ġwr ong
Ġs z
I m
M UL
Icon Success
Ġr hs
ç ¨
H IGH
He ad
append Child
str ide
ĊĠĠĠĠĠĠĠĠĠĠĠĠĠĠĠĠĠĠĠĠĠĠĠĠĠĠĠĠĠĠĠĠĠĠĠĠĠĠĠĠ ĠĠĠĠĠĠĠĠĠĠĠĠĠĠĠ
o res
Ù Ĭ
ĠRe f
Cal endar
Ġname d
ĠA P
z a
PE G
Ġf rag
WE B
M achine
Ġa x
vert ex
2 64
ĠR TC
Â £
t wo
lo sing
z en
SUP P
Ġignore d
Function s
ĠZ end
Ġdown load
ĠB ack
value Of
Me trics
SE D
st andard
co ord
ĊĊ ĊĠĠĠĠĠĠĠ
Ġal ias
f ragment
Oper and
scal a
Ġ" (
k i
Ġdefault s
Sc hedule
D ictionary
ĠPy Object
TIM ER
activ ate
Con st
10 4
">< ?
parent Node
Ġim mediate
ile vel
IconSuccess Encoded
ERN AL
ĠG raph
Dest roy
(" <
T CP
Ali as
ser ies
] ).
bit map
A IN
Ġloc ale
ir c
To uch
Ġc ourse
U ART
Ġ" :
\ .
ĠAR RAY
T ip
ill is
ĠCh annel
ĠT X
at ype
ĠB ASE
Ġp ci
W L
th r
We ight
ĠĠĠĠĠĠĠĠĠĠĠĠĠĠĠĠ ĠĠĠĠĠĠĠĠĠĠĠĠ
Ð¾ ÑĢ
or ient
trans fer
cr umb
PR IV
du cer
lay ers
è ĩ
Ġ======= =
ab br
Ġaction s
y e
ex tract
Se q
Ġh istory
G T
ad oc
ĠT OP
Load ing
SUP PORT
ame l
at is
Ġal gorithm
; \
ĠH OLDER
Ġp od
Ġad just
cre ase
p aper
( ()
Ex tra
H z
ST OP
Ġread y
on ical
Ġ quot
201 2
L ONG
sc ape
ĠDe vice
Ġattr s
Ġh ide
V IS
al an
Sc alar
s hell
ĠCre ated
BO OL
Trans ition
Ġtask s
I MAGE
p ur
st ub
Ñ Ī
Ġre ject
ol ate
de b
v ma
he ap
Ġm ail
ys ical
ĠS ign
END OR
i om
LAN G
NU MBER
Ġde tail
ĠÐ ¸
irm ware
di ction
Ġpar a
Ġw rapper
Vis itor
Ġde al
Or igin
al ity
F ilename
t vb
Com mit
Ã ĥ
Ġcheck s
m ul
gener al
Ġread ing
B ad
Or g
or ing
O RE
Ġa ff
L ER
bad ge
T w
ot on
conn ected
Ġvol atile
In clude
B reak
Code c
ens itive
Ġ5 5
F etch
Ġin s
åĪ Ĩ
Ġ il
in i
st age
sd k
Ġl p
Ġimplement ed
ri er
ç½ ®
re verse
Ċĉĉĉĉĉĉĉĉĉĉ ĉĉ
00 02
Ġc losed
Ġd ump
Ġde termine
Ġbu cket
N ORMAL
Ġtable s
ĠW ith
ĠC AN
Ġ* */
q q
ed u
W rit
Ġbe havior
Ġappro priate
æĪ Ĳ
g mail
tp l
ul p
sec ret
in verse
å Ĵ
ch no
CL IENT
18 6
Group Name
M ON
Ð¾Ð »
av en
Ġfor ward
t uple
Ġto uch
Ġser ies
xffff ff
av atar
Ġg it
201 8
Ġ"- //
ä½¿ çĶ¨
1 99
Fe atures
l ision
č ĊĠĠĠĠĠĠĠĠĠĠĠĠĠ
VIDE O
An chor
Î ¹
ĠC urrent
T ITLE
ong o
c id
AT T
Ġgener ic
ĠP ri
æį ®
S core
Ġp t
Ġ4 8
Ġ ../
Ġinv ok
Access or
Ñ Ĩ
path s
**************** ********
' ll
Ġh w
G tk
'' '
I CT
Ð ¹
E lem
] {
m ot
11 11
ĠO b
Ġfor ms
work er
rg b
Z oom
h ib
Ċ Ċĉĉĉĉĉ
Read y
Ġap ilevel
) =
è¡ ¨
à¦ ¾
v et
ge o
ĠR ender
Ġhand ling
MA CH
s izing
SH A
ĠTo ken
Ġrep ly
render er
ri al
m nt
Â ´
N I
a ux
AC CESS
IST ER
ĠR ights
m ine
Ġs i
ex cept
REF ER
+ -
Ġb oard
S urface
Ġch art
ce ler
E QUAL
Match er
port s
Ġp m
soc ial
style s
ĠE ntity
col s
dir name
google apis
Ġsuccess fully
ĠĠĠĠĠĠĠĠĠĠĠĠĠĠĠĠ ĠĠĠĠĠĠĠĠĠĠĠĠĠĠĠ
de mo
in ject
task s
T ex
in tr
G P
ult ure
Name Link
app le
ĊĠĠĠĠĠĠĠĠĠĠĠĠĠĠĠĠĠĠĠĠĠĠĠĠĠĠĠĠĠĠĠĠĠĠĠĠĠĠĠĠ Ġ
ĠF R
B UT
TH READ
Ġstart ed
ĠF LA
B S
>< ?
ç Ĳ
ancell ation
ĠD on
ĠEx p
=" ./
Ġ licenses
è ĥ½
dev ices
ĠS ymbol
L ines
graph ics
to LowerCase
char s
ĠT emp
Re ason
cs v
Ġcan vas
L in
Ġne gative
d istance
ie ce
ĠIn ternal
ne g
p ay
Ġc y
Ġ__ (
h ot
new s
Ġpro mise
L a
M ix
t ty
dir ty
SE QU
I ES
C NT
r ss
Ex ist
f h
> )</
j et
Work er
Ġalloc ated
E nt
Ġo l
Ġcre ating
em o
intel lij
> ',
vers ions
Ġmod ification
M icrosoft
E V
Ġf lush
t ex
Ġnot ify
ST EM
) ?
Fe ed
IC ES
Comp are
Ġter min
Ġsc hedule
Ġm ixed
form ance
ç ®
V ENDOR
ind ices
N d
RAN GE
me tric
Re ceived
see k
ĠIllegal ArgumentException
Â ½
if ace
Ġ Î
c art
FI FO
Ġf actor
Ġex act
Con tract
Run ner
Ġa st
p lug
á º
for ge
p n
Ġt f
j ack
h ub
ĠBu ilder
Auth entication
UNK NOWN
Ġsuccess ful
conf irm
Ġ' {
55 5
IBUT ORS
j d
PI X
aj or
ĠPar ameters
Ġb ook
Class Name
ev t
Ðµ ÑĤ
Ġan gle
Le g
name d
åĴ Į
WIN DO
sh op
ge ometry
b ench
clus ive
L T
Ġ// !
Ġm ath
mer ce
Ġtext ure
10 2
S IG
ak en
Ġrecord s
con v
Ã ı
Ġp at
ERRUP T
Ġlong er
F IN
Ġelse if
read crumb
fr m
M sk
s upp
Ġar ound
ĠA D
o z
Ġlabel s
g lob
Ġre store
ĠNO TE
ĠF irst
CO PY
F REE
re pository
X G
ĠM SM
Col lect
mo us
Ġre try
un register
ER O
it r
N EXT
arg er
ĠI m
Ġin tegr
K EN
U G
Own Property
cy cle
ĠS SL
~~~~ ~~~~
ĠL ibrary
ĊĊĠĠĠĠ ĊĊĠĠĠĠ
cc cc
Ù ĩ
h int
ĠT CP
v n
FAIL URE
rit ical
Â ¹
Ú ©
Ġword s
Ġinput s
A cc
li very
Block s
vol atile
S heet
An alysis
ĠAUT H
ce ed
Ġh ome
I p
urre d
Ġmod al
> =
ãĤ ĭ
ony mous
ĊĠĠĠĠĠĠĠĠĠĠĠĠ ĊĠĠĠĠĠĠĠĠĠĠĠĠ
is o
Ġj o
Ġget s
ĠV AR
ĠAl so
Ġ/ ><
Ġ ><
L IT
Ġon Click
Ġc ss
ĠAuthor s
ĠC orp
IC ATION
pro b
ĠS DL
sample s
st it
P END
å ¿
ab stract
in ing
N ING
w alk
h ist
STAT IC
ĊĠĠĠĠĠĠĠĠĠĠĠĠĠĠĠĠ ĊĠĠĠĠĠĠĠĠĠĠĠĠĠĠĠ
Ġe ar
command s
201 9
H int
BE GIN
Ġt vb
Â ¸
St ub
Ġ[ (
M ore
Ġc od
Ñ ħ
thread s
14 4
Ġup load
me sh
è ¨
Ġr b
s ch
Ġ} ).
12 4
ĠP romise
time line
g z
Ġ ----------------
st and
ĠCon stant
! </
la x
remove Class
la mbda
stylesheet s
Ġconfig ured
M X
ĠC opy
Ġm er
Ġb fd
Ex cel
En tries
ens ity
Ġ0 2
Ġto kens
. ")
G TK
or n
sol id
ĠT emplate
Trans lation
per f
Ġab ort
C ar
iff ies
ĠCONTR IBUTORS
çĲ Ĩ
Ã ®
Format ter
ĠM ode
Ġpre c
f un
TE X
Dis k
D AT
é ģ
ĠStr uct
mod ified
m ing
std out
ĠV irtual
åŃ Ĺ
ĠU sed
ME DI
Re act
Wh ite
CA ST
[] )
s urface
O LE
b old
Ġm ount
ĠS P
Ċĉ Ċĉ
ma y
ĠSH A
[ -
U UID
p od
on om
ĠA cc
fin ish
Ġwe ight
ĠVer ify
K ernel
Ġc ome
SET T
gr p
late st
de ep
ĠT ry
Ġ" ");
Ġm ysql
PC M
ĠOther wise
ver age
č ĊĠĠĠĠĠĠĠĠĠĠĠĠĠĠĠĠĠĠĠĠĠĠĠĠĠĠĠĠĠĠĠĠĠĠĠĠĠĠĠ
ĠSc ript
Rep ly
Un ique
> .</
ç İ
B F
Ð¸ ÑĤ
H C
AN Y
p le
Ġ ERR
S ound
M argin
an it
Ġre gex
ĠO C
hel lo
ĊĊĊĊĊĊĊĊ ĊĊĊĊĊĊĊĊ
port folio
Ġc lip
Execut or
p w
ĠO ff
ĠP art
s ound
S ys
Ġl ua
no script
Ġ ĊĠĠ
Ġ3 6
En c
TEXT URE
Ġinit ialized
Ġ# {
DO MAIN
ĠU S
S em
li ve
ver bose
O IN
ĠF loat
Ġreg isters
D ist
c apture
mod ifier
thumb nail
As set
st e
ĠD isplay
one y
il led
Ġinclude s
ĠT ree
Name d
u art
se ed
sub scribe
S uppress
Ġb ounds
Stack Trace
ĠS te
Ġh ig
Ġp ad
A IL
co st
ĠV OS
Ø§ ÙĦ
Trans fer
Ġp ublish
Ġ2 000
ĠNet work
reser ved
P resent
g pu
Ġdef er
33 3
Ġ4 2
Ġ200 9
mix er
Ġ( <
Ġu id
am b
b ine
Ġd f
: [
m q
Ġsh all
d v
ict ure
R B
00 3
Ã ĵ
order ed
Ġcl k
å ĳ
Ġcomp ile
an o
Å ¡
Ġn a
Ġi eee
P lease
MP LE
row se
Ġ4 5
Pop up
åĬ ł
F MT
ul ated
Ð ±
Ġk nown
ç ¤
Per cent
el ong
ãĤ ¹
or a
ces ses
P haser
Ġ ê
Un able
for um
>& #
Ġacc ording
Ġp atch
Ø ¨
×Ļ ×
E F
ĠÐ ¾
H ook
Ġf ocus
or ph
! \
Ġ ))
Up per
ag raph
Ġfail s
ĠSh ow
Ġ æ
ĠM edia
ĠForm at
ing er
ĠD IS
Ġtop ic
ĠS u
ĠU P
Â ²
Ġla mbda
ATTR IB
åħ ¥
Ġpartic ular
he el
CLU DE
Ġen code
Ġd rag
imp lement
con current
crypt o
val s
cur s
ump y
EN UM
Ġid s
ĠCom mon
CUR RENT
ĠB ig
v ing
br aries
ri be
" ];
M ARK
C lip
Ġ200 8
s lave
File Path
ĠST AT
Align ment
L IMIT
Ġ3 4
CR Y
> [
Ġm is
w ik
ad c
ant ic
GEN ER
m ber
iagnost ics
Ġ5 9
B AD
ĠR X
> ');
Table s
å¼ ı
ĠS m
Ġv ertex
D ao
border ed
Ġd erived
in voke
Ġh er
annot ations
Pri mary
Su ite
Ġmark er
Set s
ĠAct ive
OP ER
ced ure
Ġsend ing
Ġexp and
ĠArg ument
Ġex ec
ĠCon sole
11 4
Ġconnection s
n able
ER Y
App ly
qu o
G S
E OF
Ġnot ification
ĊĊĉ Ġ
Ch at
' ></
SC AL
Ġ 99
Ġor ig
ãĥ Ī
Ġab le
Ġcomp leted
ĠN um
incip al
ĠG lobal
ARG S
T ick
Â º
ain ed
4 04
T ry
ve y
color s
help ers
ĠAt tribute
ĠĠĠĠĠĠĠĠĠĠĠĠĠĠĠĠ ĠĠĠĠĠĠĠĠĠĠĠĠĠĠ
sk ill
ast e
ł ģ
MM MM
ãģĹ ãģ
Ġm akes
ĠA CTION
C XX
P ut
e lasticsearch
Ġcal culate
ĠIR Q
back up
pre d
BUT TON
DI F
ĠH E
ĠD ep
Valid ate
D i
Ġconfig ure
åĩ º
Ġrepresent ing
Ġ4 00
pe l
M arsh
ĠImp lement
ç Ĥ
æľ ¬
Ġ-- -
ĠS M
valu ation
1 12
]( #
To ggle
Ġ' )
Ġany thing
åĲ į
i ate
ra de
template s
ĠG rid
Byte Array
Ġde cla
mit em
** */
U sed
Ġn l
L ow
B G
ç «
Ä ĥ
n u
ail s
GL enum
")) );
C AN
t ls
ä½ ľ
Ġw l
dest ination
Java Script
s ender
iz ard
% );
Ġb trfs
if th
un ion
9 15
om ite
im s
Back end
Ġ' [
Ġs napshot
p ref
Change s
fail ure
Ġs imp
Te am
go od
ent ities
Ã ¬
äº º
ĠInter face
omite mpty
SC AN
I VER
ffer o
O k
ar s
str ument
al i
Ġto String
Ġm k
ç¨ ĭ
ĠA ffero
Label s
ĠTrans itional
R adius
ge om
Ġpy thon
ach ing
p fn
Ġen coded
P aint
red uce
Ġp oly
char acter
4 01
Sh adow
Array s
Ġ art
Dis abled
Ġv a
jav ax
N P
b ss
t ick
Ġcre ation
Ġre ally
de sktop
Ġde termin
Ġsort ed
i Ã³n
Ġf ast
S ig
ĠString Builder
CP P
C oin
ĠC ache
Ġm ult
Ġarg c
ĠHOLDER S
Run ning
me trics
55 55
Ġ" --
ff ix
ĠO K
B IN
HAS H
is her
ne ed
un used
sub Nav
čĊĉĉ čĊĉ
P ack
ic ast
LA RE
Ġd rm
ãģ «
Ã «
ĠOr der
Î ½
F amily
get C
Ġupdate s
ĠPro gram
ENT IAL
Ġ Ċĉĉĉ
/ $
Vis ual
depend ent
ab ort
RE SOURCE
STRU CT
Are Equal
Ġt akes
get Text
Ġ ðŁ
me mitem
Ã Ĺ
Ġd ictionary
ch n
B I
H ex
Ġ 66
Ġal location
variable s
æĸ °
Struct ure
Ġp o
LA ST
riv ers
to c
Ġown ership
ĠC C
ĠD es
INT ERNAL
(" -
et s
Ġcol lect
O ld
Ġfin ished
ĠEx pression
ost ream
Sign al
miss ing
h ere
H ide
M erge
qu ick
PROPER TY
str len
MA G
is k
] \
MPL ATE
Ġwork ing
Ġh y
mod s
IN LINE
S ome
de sign
example s
at ory
\ ":
EX EC
s quare
k ill
ĠW M
D ot
ore st
: `
X P
Ġc trl
b undle
window s
Ġ ĊĠĠĠĠĠĠĠĠĠĠĠĠĠĠĠ
Ġ' ;
String s
Ġ$ $
la v
s lug
comp ress
pp ing
Get Type
Ġ{ \
Ċĉĉĉĉĉĉ Ċĉĉĉĉĉ
s mb
Ġ2 02
RT C
ĠI mmutable
ut or
Ġfe ed
SO CK
ĠRE AD
host name
åī į
Â ¿
reg istry
16 4
CONNE CT
Ġ utils
ma j
Ġbet ter
H CI
: ',
Init ial
f loor
# !
ctx t
Re gex
ĠO ptions
Ġapp lied
. ');
ÑĢ Ðµ
P ending
r atio
Â ¨
cal led
../../ ../
Ġs ur
åı ĸ
ĠG EN
ĠG r
T V
set Value
Ġ?> "
Mod al
to kens
xx xx
Ġd s
æŀ ľ
Lo aded
illi seconds
Error Code
e locity
10 5
LAB EL
ip hy
d si
amazon aws
R A
ĠFIX ME
block quote
N X
w ill
ĠCon struct
inter pret
s ame
Ġcomp lex
Ref resh
Ġd ispatch
ĠR CC
ward s
ĠS pell
db c
Ġbind ing
all er
ĠL anguage
Warning s
Ġsepar ate
c losed
Ġsupp lied
Ġdistribut e
Ġrep o
': '
10 6
ĠN ow
Sec ret
M any
Ġre c
C lock
æķ° æį®
DEF INE
add on
F ULL
201 0
ĠB OTTOM
in ate
ĠM atrix
Ġw atch
part ial
Ġ ------------------------------------------------
ĠTh en
c ity
ro ker
Th reshold
Constraint s
TL S
ad just
Al gorithm
Ġse m
Ġag ent
oper ations
am a
ĠCo q
b ash
A E
a sp
Ã Ī
P ID
am ent
04 0
' ve
O G
Ð ³
'=> '
a ui
Ġd ma
01 0
Ġg oog
ĠSh ould
vis it
SH ORT
4 000
Ġ[ {
enc rypt
Ġopt im
D X
Ġframe s
ic ip
Ï ĥ
w eek
ĠH as
V C
Ġcorrect ly
Gener al
jo urnal
Ġh ook
ac le
ut ter
æĪ ĳ
C ookie
ĠM IN
B ag
; %
l ish
s up
Ġmaterial s
P ayload
I ss
un its
Ġde code
Ab out
Ġconn ected
Ġnow rap
Data Source
M ult
h al
SD L
Ġre trieve
s ur
D AP
Ġdim ension
run ner
For ce
log ic
Ġs ans
Path s
Vis ibility
ĠCH AR
Ġan g
Ċĉĉĉĉ ĠĠĠĠ
Ġvar char
ĠS ave
Model s
rout ing
row Color
Ġind ices
Ġbu ilt
D ock
date picker
ĠA uth
Ġre start
æİ ¥
Component s
Ġw on
Ġf p
d ap
Ġ$ ("#
am ing
ĠSe ssion
Ġkw args
) $
m ultiple
Track er
m ms
Ġthe ad
' </
------------ --
Nd Ex
Ġtransp ort
16 8
m isc
Ġs yntax
Ġc amera
M ag
pe ated
Ġr adius
ĠRe cord
base d
Ġss ize
Ġexecut ed
Ġact ivity
Ġto ggle
V o
ar ing
ac ion
first row
B lob
Ġlist en
b est
Ex pect
brid ge
Ġt ensor
re try
P B
al ing
ĠCon structor
13 01
Ġ. /
1 0000
su ffix
leg end
em ber
Second s
d h
R S
k b
p ayment
ĠF rank
transp arent
list s
Ã ¦
ut ral
Ġde legate
sc all
de t
Ġgrant ed
Ã ±
Ge o
æī Ģ
gu ide
Ġco ord
ä¼ ļ
ĠDis able
vet ica
eh icle
roll ers
id i
xy gen
aaaa aaaa
Ġr m
Ã Ģ
pre vent
D IG
11 5
( `
Ġser vices
ce eded
Ġre verse
ig ator
k m
Ġp lot
CT X
] ",
INST ALL
? (
Ġrepresent s
Pr ice
ub ernet
Page s
ST ER
C SR
Ġ// -->
Type Def
ĊĊĉ ĠĠĠ
ç¤ º
ubernet es
input s
Ġg ive
ĠO ver
) ");
de scribe
Dis able
un set
ĠW orld
ĊĠĠĠĠĠĠĠĠĠĠĠĠĠĠĠĠĠĠĠĠĠĠĠĠĠĠĠĠĠĠĠĠĠĠĠĠĠĠĠĠ ĠĠĠĠ
Ġreference s
Ġh it
(' \
Ġcon version
ĠRe quire
Ġre striction
ynchron ous
Ġre peat
ĠG ST
Ġh ardware
Spec ial
Ġc ookie
Ġm ultip
R atio
ĊĠĠĠĠ ĉ
I FI
to do
b fd
V ID
[ ],
e g
al a
Be en
, &
Not ify
ĠNOT ICE
co p
st one
ĠSet tings
sect or
Ġth reshold
ct ype
id entity
c url
Ġout line
cc c
ex clude
L V
S td
m ime
m gr
[ ^
ĠGener ate
24 0
Ã ¢
M illis
Me asure
g b
Ġs lice
äº İ
i q
EN SION
ãģ Ħ
Tag Name
ĠP lugin
Ġth ings
end region
IN C
er ase
s il
Ġ) );
Ġsign ed
PAR AMETER
U i
Int ent
if s
Ġcom mun
r ink
IC AL
iss ue
Ġc apture
ĠVar iable
w c
fin ite
Enumer able
St age
O VER
Status Code
Ġtri m
6666 66
ĠCon nection
Ġun its
24 5
Ã ²
Ġth ree
Con s
Un iform
ĠPer mission
] -->
lab ility
Ġch ip
åı ĳ
Ġregard ing
se udo
j ar
Ã ĩ
og ram
Ġs core
at able
rc u
R o
He ading
L ite
ĠT ARGET
package s
Id ent
UB LE
ĠOr iginal
Ġbg color
Ġc ross
( --
! ");
æ ı
ĠGL enum
Ġm uch
00000000 00000000
ĊĠĠĠĠ ĊĠĠĠĠĠĠĠ
Ġm ix
list en
c ross
Style s
Fix ture
pt s
And roid
ĠS che
Ġre maining
Ġstyle s
Ġadd ing
rot ate
Ġplugin s
par sed
ĠAl low
b ut
é ¢
: &
Ġd ummy
n f
Ġ um
ci pe
(' _
Â ¾
D ig
fa de
n om
b ounds
3 02
PL Y
custom er
Ġcom ments
Ġc ut
lic a
( []
Ġp ick
SING LE
ri ent
Ġret ain
CC CC
SY STEM
ĠAd ded
LA IM
) &
ĠDI RECT
åĽ ŀ
++) {
m ultip
du ced
( ",
00 4
qu ip
attach ment
er ature
Å ¾
Cur ve
ĠDef ine
In line
å¤ §
> $
h dev
m ust
21 10
ĠM enu
condition s
W rap
ab b
Ġthread s
d ns
Ph ase
A lt
Me tric
crypt ed
ĠD atabase
Ġwh ose
Up dated
snap shot
Ġ1 50
v f
A K
Ġat tempt
{ },
T wo
pa use
IS O
ĠD r
ĠIn stance
> ()</
C ertificate
ĠE ng
ur ther
ad ded
Re vision
par k
Ï ģ
ĠF loor
Cont ain
Ġcomp letion
Ġauth entication
com merce
day s
ĠPoint er
Ġp g
Check er
Ġdec imal
buff ers
XX X
En code
æ Ľ
-- )
Ġmon itor
ç Ń
data set
ph ase
Ph one
ĠTh row
Sub ject
(' ../
to Equal
mb ed
plan e
F inal
Ġper mitted
P l
ĊĠĠĠĠĠĠĠĠĠĠĠĠĠĠĠĠĠĠĠĠĠĠĠĠĠĠĠĠĠĠĠĠĠĠĠĠĠĠĠĠ ĠĠ
vis ibility
ern ate
man agement
me an
C lean
18 5
12 2
Ġper f
ra ce
Â ¬
Man agement
F oo
ç º
sol r
Ġaccess key
ĠB asic
Ġent ire
S afe
e ven
a res
Ġref resh
o sed
ĠM AC
ĠM ac
Allow ed
w ar
åĲ İ
OLE AN
state ment
l ator
Ġse ed
ĠP osition
Hel lo
78 9
Ġw eek
Ġwork er
co res
I mg
project s
Ġdef ines
Ke ep
CON TEXT
Ġro om
INTER FACE
enum er
: /
------------ ---
ĠA mazon
Ġf ake
j p
SE CON
S uper
inner HTML
un icode
W P
b m
Ġ200 5
writ ten
C riteria
Ġfin ish
ĠP lace
Ġ ÑĤ
ï¼ ī
M ed
let ter
P adding
Â «
ĠCorp oration
Ġas sembly
ĠH O
S ent
ĠB utton
fav icon
ĠEX T
iz able
ĠC RC
re vision
Ġwh o
ID s
a con
S ol
ubl isher
________ ________
b ank
NO SCRIPT
ID X
Ġn ested
w allet
Variable s
ld s
Ġfilter s
S lice
Ġmem cpy
O V
Ċĉĉĉĉ Ċĉĉĉ
Ġconf irm
ro tt
lo ss
tern ate
**** **/
respon d
Pri mitive
ĠM et
gr ad
aly zer
get Data
ï¼ Ī
ç ´
Ġframe work
he st
Ġgener al
el low
Ġ ic
ĠFrank lin
cho ice
10 9
Ġd jango
product s
1 32
record s
Ġ iv
ãģ §
Ġem bed
æĸĩ ä»¶
ĠM SG
Ġd u
B IG
ĠG tk
ĠC MD
li a
Ġimmediate ly
n orm
" </
ĠÐ ·
ĠG o
De coder
Ġsample s
ĠL abel
By Name
č Ċĉĉĉĉĉĉĉĉ
ĠAR M
pi res
'] [
Write Line
comp letion
REG ISTER
H it
å Ļ
Ġd x
Ġph ase
dec imal
ĠS IGN
string ify
sh utdown
de tect
P lot
ÑĢ Ð°Ð
Ġte am
pect or
irq restore
Ġper cent
bit r
UM N
Ġp aint
Ġd entry
limit er
ang ing
ĠN ull
Ñ İ
Ġc f
Det ector
gs l
Ġtransaction s
bo ss
Ġs leep
Ġrout ine
Ġst mt
str n
ST A
conn ector
L ang
U AL
MO V
ĠSt yle
] ],
ĠA ws
v cpu
Ã Ĵ
ĠL E
m oment
æ Ĭ
P riv
ĠD raw
Ġhigh light
ol or
Ġchannel s
d if
sub scription
Over lay
ĠW hether
bu iltin
Ġout side
RE EN
01 00
ĠPRO C
get Property
ä¹ ĭ
Ġn k
å Ŀ
alloc ate
Ġ/ ^
ĠA tom
ot a
ĠH FILL
source s
ãĢ Ģ
ĠF ifth
Ġa i
le e
inte gr
1 16
t id
st ers
ĠD WORD
Do ctrine
Conf irm
ĠImp ort
\ ">
it ect
t ures
TO DO
åı¯ ä»¥
ĠO ne
Sh ift
è ´
à¤ °
SE ARCH
exception s
GR AM
at o
Ġ7 0
ĠMem ory
MEM ORY
- ">
EX IT
ul se
Ġwh ole
state s
ĠR out
short cut
> {
H Z
ĠN L
ip h
ub ble
W D
Ġ}} </
Ġreg ular
Ġ0 2110
ĠAl loc
Ø§ Ø
z h
åĻ ¨
C Y
Ġs izes
G NU
Ġpe g
y a
ĠJava Script
SPE LL
ĠM P
get Key
cre te
H idden
ĠÐ ±
wh at
m ic
:: ~
Ġf requency
st or
ref lect
ĠG PL
Ġ} ),
Ġs ym
to k
de veloper
um an
à§ °
Ä į
include s
RE L
n ested
æĿ ¥
Ġ" ../
Ġg c
pre ter
Ġp p
? </
Ġ\ \
ar c
Ġpar sing
He ap
r hs
Ġpro cessed
Module s
Ġbit map
RE SH
i et
Ġpixel s
g able
Ad ded
åĬ ¨
10 3
getElement sBy
Ġconst ants
M Search
Al ert
H ave
Â ¦
P LA
Ð¾Ð ´
add EventListener
c lo
Ġperform ance
af ari
ver ts
') "
C ost
âĢ Ŀ
ĠSto re
no br
Ġdisplay ed
+- +-
ul let
Ġbu ffers
Def ined
get User
' "
Ġcal c
Ġf it
plan ation
ch g
Ġf ire
M ATCH
b readcrumb
se p
Ġc v
h alf
Ł ¥
ĠX ml
FF ECT
de leted
Ġimp licit
Ex tract
ëĭ ¤
j u
So ftware
and box
æ ĭ
all en
_ {
P ayment
He alth
Ġassign ed
Â ª
Ġ{ $
op code
f uture
Ġcomp atible
ĠHe ader
Ċĉĉĉĉ ĠĠĠĠĠ
TO KEN
an cy
Ġc ycle
Event Handler
en ario
ur ity
Pre vious
Ġc li
as set
ĠD ISC
and o
sc si
čĊĠĠĠĠ čĊĠĠĠ
Ġlog ic
not es
Ġbe come
Ċĉ ĠĠĠĠĠĠĠĠ
ĠT op
G it
velop ers
Ġcontribut ors
Event Args
ĠT arget
Ġgo ing
Sc heduler
Ġp repare
ĠP FN
get Time
éĿ ¢
High light
IP S
s yntax
ur able
Ġl t
d yn
section s
R AM
HO ME
* .
Ġ*) &
ĠD ES
AU DIO
Sc heme
Part s
f tp
V B
, {
ĠN ON
ĠP rivate
Ġ! !
Ġgp io
] >
Ġcheck ing
as ide
Ċĉ ĠĠĠĠĠĠĠĠĠĠĠĠĠĠĠ
Ġf ront
× Ķ
pipe line
ĠM ay
ser vers
D istribut
ĠEx ecut
#! /
åŃ ĺ
g ain
D K
ãĤ ¤
MI X
æ ģ
ass oc
ext ent
Ġst ub
čĊč ĊĠĠĠĠĠĠĠĠĠĠĠĠĠĠĠ
B ridge
Ġan im
è® ¾
) ";
<? >
ct p
10 8
M s
Pro totype
Ġcontribut or
TE MP
Ġagre ements
v ir
RE T
C ASE
D N
g allery
Âł Âł
O cc
ge ther
ĠE rr
Ġtrans lation
ĠW ait
Py x
Ġn b
in er
BUS Y
èĩ ª
member NameLink
Ġatom ic
Ġindic ates
ĠCont ainer
greg ation
Ġs lide
h it
n pm
BO DY
Ġgener ator
po sed
Wh ere
Ġin voke
è¿ ĩ
202 0
oot strap
os en
Re try
ĠGener ic
H y
is ation
Ã Ķ
Ġproduct s
Ġproper ly
S hell
Ġchar ge
Ġit r
11 3
ç ¼
ED IT
In ject
Ġman agement
Ġhand lers
Un its
J s
not ifier
ĠF ixed
E st
Ġun ion
10 7
le ave
Ġlist ing
Ġthrow n
Ġrg b
R x
Cla use
Ġsol ution
d ai
IB ILITY
ĠÃ ł
sub menu
change s
d type
an imate
prec ision
List eners
ĠUn ivers
NotFound Exception
) |
Ġhe x
Bl ue
S ND
link ed
Ġ' &
ig rate
Ġi x
S el
/** */
8 99
S lide
Ġqu eries
Ġbl k
ĠM B
SD K
Ġd type
D amage
Ġr v
it tle
VO ID
w ind
mem name
ĠD CHECK
Ġde sign
de legate
Filter s
g lib
Ñ Ħ
ing leton
ĠĠ Ċ
m fd
comm un
In herit
Ã ī
' ",
Ġme asure
Pro b
int ro
ĠCOL SPAN
Ġp ag
Ġinit ialization
C LOCK
ĠC UR
Ġmac ro
Ġde tect
en coder
Ġdata set
@ {
ĠSER V
DEF IN
N aN
My Blog
Ġme sh
F REQ
Process ing
Ġst age
Ġf riend
Ġwait ing
/ #
maj or
ĠO PT
Ġp i
Ġin crement
Ġc ost
T mp
ĠPar ameter
\ ",
ig en
Ġsh own
ĠS ummary
ĠM D
cip her
p ick
Ġcomp let
16 9
step s
Ġi ms
Ġre ceiv
ĠM MC
quiv alent
Ġ* ****************************************************************************
Re ceive
Meta Data
Ġarray s
Ġin ject
================ ========
=" //
ĠA DD
Test ing
( ("
V A
tr i
> ");
Ġt c
Ġhandle d
Ġp ot
DE SCRIPT
ĠM at
cont ain
P in
pro t
Oper ations
ĠRe port
DE LAY
F oundation
g ate
ĠW ord
ĠGL int
Ġre fer
Ġm i
ĠP si
max cdn
ench mark
EMP TY
has OwnProperty
In jection
Ġlo ader
1 33
Ġ quest
Ġs ensor
ĠV ER
For ward
Ġp ersist
Dest ination
IM ARY
Ex ec
B IND
Sub mit
E FAULT
Ġc d
_ '
M G
div ider
Ġsource s
__ .
Print f
St mt
Init ialize
ĠV IR
R oom
feed back
li ver
TE MPLATE
åĨ ħ
out line
ĉ Ċ
Ġr ing
à¤ ¿
sub title
[ _
P atch
INT EGER
is Valid
dir s
ĠInit ialized
xffff ffff
En coder
ĠS top
æ µ
re ject
s To
Ġstr ip
Ġre trie
env ironment
Ġ4 1
æ ¯
RE SP
à§ į
ĠS ymfony
ĠC alled
Ċ ĊĠĠĠĠĠĠĠĠĠĠĠĠĠĠĠĠĠĠĠĠĠĠĠĠĠĠĠ
u lo
r is
ST ACK
Ref lection
Reg istration
iv ot
AD ER
P references
Ġ čĊĉ
l on
Ġref lect
Ġab s
V S
ass oci
H AVE
l m
Ċĉĉĉĉĉ Ġ
ĠU int
ĠRe lease
At trib
Ġf all
ĠP L
Ġext end
Ġparse Int
D ump
l cd
Comp letion
cu ssion
mov ing
Ġgre ater
S printf
Ġm b
Ġi de
Ġg st
al gorithm
Ġco ordinates
ĠCO MP
Ġback up
Ġs in
ĠS N
As sembly
Key word
D ONE
ys ics
T M
Ġsynchron ized
ĠW LAN
Ġ/// <
Ġmat ched
POS ITION
drv data
Ċĉĉĉĉ ĠĠĠĠĠĠ
Ġlist s
Read Only
Ġc m
Ġs uc
Z ERO
az ure
od b
un stable
200 7
P at
interface s
() `
b alance
Ġ" {
14 5
Ġsc alar
Ġ question
ug ht
Ġc x
get Current
ĠAS N
comp at
file Name
WINDO W
BYTE S
M obile
N ested
ÙĨ Ø§
comm ended
åĢ ¼
Ġ* _
od d
PRO P
Ġsw ap
Un expected
TRAN S
es ian
init ialized
ĠL inux
8 01
13 0
V P
ĠH ost
Stat istics
p ublish
S Q
c ial
Sub scription
Ġt ick
ro pped
( <
ĠST M
Ġs hell
onom y
AS H
Ġdes ired
ç łģ
on line
Line ar
H DR
ra ction
scri ptions
le y
Ċ ĊĠĠĠĠĠĠ
ĠW R
Ġm aint
, </
ay s
Th an
Ð°Ð »
S ender
ap ed
Ġinst ant
De code
Ġre pro
Cal led
iv er
ĠW IN
sk in
ĠL P
Ġz ip
SPE C
æ ¬
ĠF UN
sm odel
D up
f ollow
ĠB US
C fg
b ert
ĠC loud
; -
FI RST
Ġ200 7
Ġcreate s
now led
red it
"> {{
Rout er
read only
Ġz oom
Custom er
] "
UN USED
ex e
U sing
em s
Ġsh are
è µ
Val s
Ġext ensions
################################ ################################
ph oto
Ġn orm
DI AN
av g
TR IG
Red irect
ĠVal idate
Ġ4 4
Ġback end
ick y
or se
et ween
st roke
ret ty
Gener ate
ĠÂ ©
Emit ter
== '
ac er
q r
Conn ector
C OR
Ġprob ably
Ġ1 20
Ġinherit ed
Rect angle
Ġ escape
i or
Dim ension
Ġn fs
v r
Ġf un
FILE S
ch k
o ct
ch ase
> -
PLAY ER
Image s
ill ing
xFF FE
çĤ ¹
= \
m is
scri ber
C or
IS H
s pe
Ġro uter
ĠC P
Ġocc urred
38 4
ĠS ince
ĠCON NE
h ow
ad j
'} ),
ĠHel per
ĠSw itch
` :
h z
. %
Ġoper and
D AC
F LOW
Ġb elong
arg c
Ġge ometry
ut ation
ĠM OD
d ating
cs i
Ġb b
h h
f iler
ad r
limit s
Ġ1 000000
valid ator
ç ľ
Ġdis sect
i ence
Ġs yn
is Array
job s
! "
( ',
ĠOC aml
Ġ__ ('
b ined
ĠE L
ĉ Ġ
Rel ative
P ART
: ",
p lain
ĠL ock
S ink
ĉĉĉĉ ĉĉĉ
an alysis
SUPP ORTED
Ass oci
Ġun def
f v
ĠCon n
PORT S
ip pet
ar ante
w i
Ġmem set
">( </
ĠIn formation
ext ype
mine craft
ĠS TD
W H
serv let
In tegr
Ġd d
ĠA udio
View er
ĠE ns
amp a
> /
ĠE ach
Ġ5 6
ed Exception
ne utral
r ating
æł ĩ
Ï Ģ
Ġc nt
"> [
Ġf b
Ġb undle
id ade
Â ©
S lider
Â §
ĊĠĠ ĊĠĠ
y ou
ol er
ĠA M
ĠM ove
ĠHow ever
QU ERY
Un der
() "
unc ate
M o
ir med
ĠValue Error
ĠA g
Ġr ank
#### #
ĠSet up
ĠRe al
Ġf ew
Ġn or
Ġex clude
14 7
Ġ3 8
G ateway
Ã µ
Ġadd ition
/* ----------------------------------------------------------------
H P
Ġsub mit
AN I
umb nail
Ġcod ing
Ġm r
M ultiple
ĠL ast
S CHE
F ake
Ù ģ
File System
++ ,
ĠPro perties
ãĥ «
ĠSPECI AL
i pt
f ifo
Ġ~ (
Ġinvok ed
ĠR PC
ĠC ount
ĠIP v
ge m
inherit ed
Ġcert ain
å ĵ
x p
j sp
ann ed
ĠCont roller
3 01
Ġh ad
Ġ"\ "
+ (
N il
Ġf lat
in ity
Ġe val
cla im
ĠUs age
ĠLay out
n th
ĠM ulti
Ġpackage s
C AM
smodel s
âĢ ĵ
J o
d og
Ã °
re marks
ĠC ar
Command s
Ġcallback s
d ic
memItem Left
Ġtarget s
Ġ% %
13 9
> `
) '
ĠM atch
ph oton
ĠP ER
: $
ĊĠĠĠĠĠĠĠĠ ĊĠĠĠ
in crement
Ġ& (
ìĿ ´
Ġ3 7
Ġ[ #
Ġs uffix
i S
th ers
IT ER
Ġh ist
Ġpipe line
A zure
ext ends
Rout ing
S upp
V IR
Ġin f
ĠMethod s
ĠCO MM
Ġassign ment
c ms
pr ing
READ Y
ub ic
Ġsh a
e fficient
ĠN ET
go ing
Ġs urface
Ġcop ied
= </
ipher al
Annot ations
in struction
align ed
t one
A ut
S prite
cp i
ĠPFN GL
Ġ" *
å »
Ġstate s
Ġcheck sum
User name
IO C
Ġin dividual
Poly gon
Assign ment
SERV ICE
ig ate
å¼ Ģ
Ð¾Ð ¼
8 0000000
exist ing
IN CLUDE
ll vm
memItem Right
ĠG it
temp ts
Sh are
ST D
W eek
log s
ĠDocument ation
Ġspec ifies
00 8
di e
Lin q
ĠSY S
Ġb lob
r ust
ist ent
en ant
Ġst uff
ancellation Token
Ġpos itive
CONT ENT
ĠOb servable
Ġ= ========================================================================
IN FR
sc heme
Pre view
utor ial
Ġe c
chart s
Ġh alf
ĠF ont
ĠTest s
76 8
Ġtemp orary
rg ba
FO UND
f name
ĠA DV
ĠSt andard
s lds
ig ure
éĢ ļ
h old
Ġo ps
irq save
x mm
Ġ" ./
Comp lex
Ġbl ue
Combo Box
ĠJ ob
E LEMENT
re load
Act or
ou ch
Ã į
Ġf ooter
Ġl atest
Ġ201 8
à¥ ĩ
5 64
pt e
Suppress Warnings
ps z
Ġf re
ĠPro duct
us ion
E A
M ount
man ual
SEQU ENTIAL
S LOT
ÑĢ Ð¸
Ġext ern
P ol
č ĊĠĠĠĠĠĠ
Ġcomp uted
p ll
Ġsc hed
ä¿ ¡
Ġerr no
Cache d
cat alog
r sp
Ġ answer
Ġscript s
ar b
ampa ign
Ġ= ~
Pipe line
Ġcode c
ĠIn fo
ENT AL
1 999
gr up
ur ations
eb y
On ce
ĠR ange
Ġpair s
Ab solute
M ENU
print StackTrace
be an
Ġre main
IN GE
FLA SH
ĠIn sert
ĠA SC
sp ark
Ġt ell
2 10
Ċĉĉĉĉĉ ĠĠ
ri p
Con struct
Cl one
marsh al
Ġ200 6
persist ence
QUE UE
Ġ ĊĠĠĠĠĠĠĠĠ
GLOBAL S
e u
D ROP
O rient
op am
ĠÐ ¼
ĠSche ma
. ";
min or
STAT S
Ġdefinition s
Ġang ular
ĠF rom
Ġun set
Ġlicense d
in x
j q
Ġd amage
CH O
ĠN ext
dash board
æ ¨
Ġp ng
SU M
M IC
Ġsh adow
MA IL
Ġ article
l ar
y h
AL LOW
)) ))
Ġvar ious
Ġstart s
D iagnostics
P ULL
e sp
Ġ archive
Ġstep s
13 4
l k
CO UN
H orizontal
Ġd y
or er
ĊĠĠĠĠĠĠĠĠĠĠĠĠĠĠĠĠĠĠĠĠĠĠĠĠĠĠĠĠĠĠĠĠĠĠĠĠĠĠĠĠ ĠĠĠĠĠ
w ide
Ġch oose
Ã Ĩ
ST ORE
ĠR el
b anner
Ġde tected
ãĥ ĥ
Z ip
Ġr ather
cre ature
ĠX XX
get Logger
2 20
é Ķ
Arch ive
ut ions
k y
ĠP TR
prevent Default
bitr ary
å ŀ
MUL TI
UL ONG
ro ken
Ġw ire
Sh arp
C ENTER
Ġ Ã©
ĠSt orage
EN AME
ĠD ictionary
ra ct
Ġde precated
EN DIAN
× ª
Ġ'/ '
B M
ex if
2 24
ad get
ens ors
per m
ĠLe vel
p as
ag ger
IC S
Ġd er
ĠMod al
Ġf ee
p md
t z
00 7
pro mise
Sk ill
sw er
se qu
if ec
Ġevery thing
C ert
PH A
H i
Ġconvert ed
Py thon
Res ize
C MP
Ser ializable
ĠSe ction
Ġb and
b al
ĠSIGN AL
B tn
ÐµÐ½ Ð¸
keyword s
un ix
i en
sp ar
c riteria
ref ox
, (
NAME SPACE
] /
n ick
: =
h am
DEC LARE
S END
ml ink
Ġdo ing
CL R
f act
REQ UI
ĠV ec
ializ es
LE ASE
Ġannot ation
Ã Į
ĠO V
ĠCh rome
hash Code
b w
ĠA RE
æģ ¯
I W
SE Q
table block
ifec ycle
Br anch
Ċĉĉĉĉĉ ĠĠĠ
Ġsc ene
Ġsimp ly
M AT
ĠC ALL
ai ses
ĠC lose
Ġ' ../
State s
dec lare
[ ];
TYPE S
ov a
ST M
ĠS K
Ġmut ex
Inter rupt
èĢ ħ
i ses
Loc ator
Attach ment
ĠB U
C r
ch apter
ĠComp ute
t u
ĠS yntax
Ġver bose
get Default
Ġexception s
ĠAc count
Comp leted
Ġf act
im ing
Ġb ot
Ġ- &
RE N
T ASK
Ġp rep
ig gers
ĠSu ite
å® ŀ
p ager
Ġcolor s
> ",
ateg or
14 3
M LE
S n
Ġalign ment
or acle
pro vide
Ġse ver
14 0
ĉ ĠĠ
Ġbl ank
ĠH W
source forge
< =
di gest
Part icle
è ±
_ ("
of s
L ike
me s
ighb or
R CC
PACK ET
e ch
Ġ) :
ust ed
ãģ ¯
m any
å Ł
Max imum
par ty
H ist
Ġf urther
pro d
char At
ĠD SP
ENS OR
ĠS im
/ ****************************************************************
id a
Ġper mit
sec ure
op enc
Ġview s
ĠS ql
ĠA F
", ,"
Â ®
Ġin correct
sq rt
Ġsim ilar
ac ade
Ser ial
Ġsub str
Ġ0 1
Instance s
list ing
Ġreg istry
Ã ģ
Ġconstraint s
Ġequal s
Ġcom bin
h our
Ġbutton s
res ence
Re ceiver
dim ension
g uest
ĠU TF
H Y
Var s
C redentials
x ref
Ġc e
c aret
ãĤ ¯
key board
32 0
dd d
ĠInst all
ĠR ow
i ro
const ants
P WM
re ceive
ĠSt ack
Con version
ĠCON SEQUENTIAL
Ġdepend ency
=" {
ox y
ca de
Ã ħ
Ġf req
ĠJ ust
P icker
stream ing
u er
Ġst roke
log ical
E AR
Ġout er
Ġs q
20 4
Color s
ch ant
pect ive
æĢ §
d ater
id o
Ġh ar
Link s
moz illa
c as
l ated
al bum
spon d
qu ir
Ġhe ap
b n
Ġrelease d
R ob
F ront
Ġrender er
Time s
w oo
ĠIN DIRECT
Util ities
ir ation
Ġvis ibility
ĠN av
=-=- =-=-
ĠUS ART
Util ity
assert False
Ġcode s
i ated
å½ ĵ
Ġh ard
c rc
01 2
F ITS
l bl
Ġb alance
Back up
d ac
we ak
IT CH
velo pe
comp atible
INGE MENT
ST AMP
l w
request s
Un lock
"> #
VAR I
ì Ĺ
f old
}} </
Ġ6 00
Ġe vt
Link ed
Request s
çĶ Ł
EX CEPT
č Ċĉĉĉĉĉĉĉĉĉĉ
" =>
P o
S ensor
fer red
[ \
tra its
v l
at ial
Ġ*) (
in ct
ool s
Î ·
LA PI
ĠJ an
E TH
Ġ ĉĉ
Ġ[ %
SH ARE
W C
ĠS ort
v lan
Data set
ĠB ind
Ġm alloc
hl js
Ġprec ision
( ?:
Key board
ll um
čĊč Ċĉĉĉ
Ġ4 6
Ġint ent
Ġreplace d
ĠSec urity
000000 02
DE L
pack ed
Ġhandle s
Ġdif ference
ĠNo thing
č Ċĉĉĉĉĉĉĉĉĉ
Ġw alk
Init ialized
do xygen
Rot ation
M er
Ġnum er
R ank
PI PE
stat data
Ġan chor
cal culate
æĪ ĸ
Ġre moves
Ġ' :
M Y
Equal To
Ġse ll
report s
Ġatt ached
AC CE
s ink
Ġ! $
P redicate
O O
Button s
w g
: **
ĠRe ct
ĠEn v
cp us
Ġle ave
çĽ ®
ER S
11 7
ATTRIB UTE
Se g
ĠL ook
Ġcontain ed
uff le
ĠSh ort
Record s
ĠRuntime Exception
M ID
l hs
//////// ////
k top
ab ab
process ing
Ġun used
DE ST
Ġindic ate
ss h
re start
æĮ ĩ
cm os
as is
AT IVE
Ã ĭ
C ut
F ire
Ġare as
Ð Ł
Ġ1 01
rows ers
Text Field
åŀ ĭ
u ck
Ġ â
Ġsc r
hand lers
G F
11 8
AC C
AN G
ĠIter ator
ĠS LOT
Ã Ĥ
mac ro
Gr adient
i h
Ġlist eners
Ġ' ');
OD S
Art icle
sw ith
åľ °
Dispatch er
Ġ// $
Ġmd ss
al ways
e le
v d
%%%%%%%% %%%%%%%%
Ġinstruction s
O ps
Ġe as
=" $
SI M
re ens
Y our
ĠM PI
Ġm apped
M ay
Ġfile Name
ĠT w
NO TE
sp lice
Ġh i
Ġ} ));
N OP
getElementsBy TagName
ĠC Y
me asure
Att ack
fig ure
AS F
el come
ann ing
a que
++++ ++++
Ġ[ -
è °
n at
li ps
fin ity
Is Null
C ss
v ation
cept or
REG ION
å ¥
H B
VER T
ĠM I
ĠJ OIN
p al
as n
Ġm oment
pop over
work space
Ġli ve
normal ize
ĠT imer
ra cle
IP V
mag ic
00 6
s ites
olic ies
p referred
Ã ´
[ %
To kens
ret ch
è± ¡
L B
C over
v if
k n
Ġday s
% </
200 9
:: ::
ĊĠĠĠĠĠĠĠĠĠĠĠĠĠĠĠĠĠĠĠĠĠĠĠĠĠĠĠĠĠĠĠĠĠĠĠĠĠĠĠĠĠĠĠĠĠĠĠĠĠĠĠĠĠĠĠĠ ĠĠĠ
ĠRE Q
Ġqu ick
ĠM Y
ĠSU CH
il s
url s
Symbol s
Ġ$ ('.
ĠEN C
t ic
Ġ í
R adio
N s
3 60
Ġv s
ĠY Y
sp awn
IG ENCE
w ire
ĠN on
um ask
oun ded
node Type
ĠP IN
per malink
ISE D
bar s
support s
Ã ·
ĠT EXT
; ,
ĠCON T
13 5
ĠTr igger
Comp osite
In voke
ĠM ust
F M
å° ±
ĠPRO FITS
PK G
Q T
MAG IC
Un icode
GL IGENCE
Ġ@ {
la ps
l r
SPE ED
iz z
pan e
thr ift
ee ee
====== =
p refs
Ġ5 8
Ġi i
Ġg uint
orre nt
Ind ices
BO ARD
WEB PACK
ST IT
is er
Ġmay be
BO OLEAN
čĊĉ ĠĠĠ
Ġt ail
22 2
CLE AR
Ġp d
over n
semb ler
std io
az y
__ ((
Ġb p
CID ENTAL
PRIV ATE
ar ia
y aml
à¯ į
Ġw ake
com bo
ĠEns ure
ĠF L
cover age
Ġocc urs
ash board
Ġexplicit ly
Ġr tx
th d
c q
Ġg int
user id
INE SS
Ġas k
P ix
Ġdebug ging
in ator
C V
C art
æ ĥ
IMP ORTED
Ġf lash
Ġher eby
Ġre ceiver
Ġn v
pro m
Ġon Mouse
Permission s
> ("
tr an
ĠSk ip
Fore ign
De cor
Ġsec ret
ĠTe am
C nt
IST S
Channel s
Ġsql ite
Op code
Fin ished
Tool Strip
Ġp oss
Ġbegin ning
G st
ter ms
ra ise
comp iled
Or iginal
Ġt t
ĠAdd s
ĠLO SS
On Search
ĠAS F
ĠF in
ta ke
Ġc ertificate
Line No
Ġc out
Th ere
Ġrepro duce
a ud
am d
ĠNE GLIGENCE
g be
Ġpacket s
R ew
Ã§ Ã£o
Any Ref
URE MENT
é ľ
ĠE C
Fatal f
15 6
TR ACK
Sub Menu
Ġmark ed
attr ib
Ġc are
IN K
c fs
ĊĠĠĠĠĠĠĠĠĠĠĠĠĠĠĠĠĠĠĠĠĠĠĠĠĠĠĠĠĠĠĠĠĠĠĠĠĠĠĠĠ ĠĠĠĠĠĠ
Type Id
64 4
sh ader
ĠCont act
CLO SE
ale d
ä½ ł
Persist ent
LE X
Ġ@ "
ĠAd min
ps i
play back
Ġrot ation
Ġex planation
P ad
os h
D lg
Ġid entity
Type Name
DO UBLE
ĠQ ue
Âĥ Â
ĠR ule
() ]
ĠIN CIDENTAL
E r
ĠE num
Part ial
P ur
sc heduler
alan cer
")) ,
Mat ches
âĸ Ī
ĠR andom
Ind ent
St amp
Ġreturn ing
ĠSt reet
/ :
Ġ' *
AL OG
ĠRequire d
T ax
Mut ex
ç¬ ¬
cap acity
Ġunder lying
cpu freq
44 4
tab End
Ġde claration
INFR INGEMENT
Char s
} ).
ad apt
Ġ6 5
D WORD
Ġf our
æĪ ·
m icro
ĠT C
ĠD irect
tr as
= $(
on al
Ġs lave
Ġ3 9
Num eric
ĠCONNE CTION
Ġb s
ĠTrans action
Å Ĥ
g fx
Quest ion
æ ±
* }
Ġc redentials
Work space
Ġre cent
F ast
P ay
R R
æľ Ģ
ĠDE V
ur er
ĠValue s
Ġll vm
Ġprevious ly
Ġwarning s
åĪ Ĺ
)) :
Conn ected
Ġatt ack
ĠLoc ation
ĊĠĠ ĊĠĠĠ
W LAN
Ġu uid
UR A
m icrosoft
å¤ ļ
Author ization
L ng
scal ar
| \
Get Value
Ġindic ating
Ġ*/ ;
ĠA ST
Ġsymbol s
è ·
View s
V oid
Has Been
MO TE
ops is
me mp
ME TA
Fin der
ĠM eta
ĠD own
="../ _
38 6
": {
ĠB l
pro g
ĠAr gs
P AT
ĠSTR ICT
Ġext ent
ĠEV EN
t icket
rom ium
Ġle s
Sw ap
ĠAUTH ORS
U tf
Tra its
Ġs l
ĠEng ine
Ð» Ð¸
get Context
Ġreg ulator
å» º
gr pc
Ġt aken
desc r
Ġ ]);
b an
Ġlog ical
ĠPO SS
x r
f requency
Ġt m
Ġtool s
Ġbound ary
Ġp reg
Ġvar iant
ĠEn try
mp loy
sp rite
Ġdefer red
åı Ĥ
Ġcontrol s
Opt s
ĠP lay
Ġt i
direct ive
66 6
b ulk
ap pro
N N
en coded
H EL
ener gy
Ġfull y
ID LE
Ġ ].
ĠC OM
ĠINT EGER
" ):
Ġde ep
leg acy
Ġ/ =
H al
C ircle
Ġb t
Ð½ Ð¸
ud y
al g
ol ation
er min
ĠO B
P WR
{ })
Qu ick
st udent
Ġstr ide
et ter
sp lus
ĠADV ISED
Ġun lock
Ġ1 27
Ġ@ @
tr ait
"> ,</
Ex change
em y
ĉ ĠĠĠ
Ġme trics
Ignore Case
å¾ Ĺ
IME D
n an
"] :
Ġl d
ĠA rial
B ot
] }
Ġre duce
ĠS IG
log ies
Ġhig her
p aint
Lat in
lev ant
vers ation
grup pen
g cc
MODE L
202 1
ĠT itle
éĹ ´
ĠSet ting
om ial
dr ive
Ġget ting
Py Object
11 9
B and
è¿ Ľ
source LineNo
AL I
V OS
ĠP op
Cap acity
/ ',
PE D
16 6
01 1
Per malink
Ġco ordinate
EXT ENSION
STIT UTE
llum inate
18 8
int f
à¦ ¿
R W
at ern
ri a
or ange
dis connect
C FLAGS
D ry
A rc
čĊč ĊĠĠĠĠĠĠĠĠĠĠĠĠĠĠĠĠĠĠĠĠĠĠĠĠĠĠĠĠĠĠĠĠĠĠĠ
re name
ME MBER
Ġs it
Number Of
Ġsc heme
Code s
ĠEx pr
) ];
ĠC allback
T re
ith met
Ġkey word
an alytics
Be havior
Ġprocess or
wp db
Ar row
ard s
class ic
- '
Z end
Ġ} },
C losed
ĠW P
p wr
REA CH
n ers
Operation Exception
Ã ¹
ĠAcc ording
se cs
Ġ} .
de ad
global s
Log ging
j it
ĠC G
get Parent
f ar
FOR CE
Ġ8 3
C atalog
15 2
80 80
Ġv i
te ch
dd dd
me l
ĠB rowser
XG BE
u dev
')) .
ĠPOSS IBILITY
Ġh aving
)* _
IO S
ĠUnivers ity
åį ķ
P ub
LOC ATION
Ġ ke
z ier
ĠC FG
Throw able
su ite
Ex press
mk dir
ĠM ask
Ġid le
B est
à¤ ¤
g m
Ġin tern
ĠP rop
ĠD BUG
PRO M
ĠINT ERRUPT
ĠEX E
bus y
LA IMED
BO OST
ĠW AY
n fs
C DC
Cre ation
ĠI XGBE
Ġtry ing
as List
in vert
Ġ3 30
DI E
200 8
ĠE D
tern ative
Ġde ad
M F
Implement ation
j b
With out
ĠOper ation
af ka
k l
SE G
ĠC ur
to oth
ĠĠĠĠĠĠĠĠĠĠĠĠĠĠĠĠĠĠĠĠĠĠĠĠĠĠĠĠĠĠĠĠ ĠĠ
qu ant
MEDI A
he alth
ict im
e per
U nt
R AW
lu x
ĠE TH
2 32
č ĊĠĠĠĠĠĠĠĠĠĠĠĠĠĠĠĠĠ
ãģ Į
ST Y
14 9
ķ ãĤ
Ab s
ĠSERV ICES
h base
Ġac company
Ġlink ed
åº Ķ
vent ion
ĠSE LECT
Ġr q
Ġfunction ality
, \
sort ed
clar ations
ĠFR AME
open ssl
C ulture
err y
Ġset Timeout
pag ation
ot g
čĊč ĊĠĠĠĠĠĠĠĠĠĠĠĠĠĠĠĠĠĠĠĠĠĠĠĠĠĠĠĠĠĠĠĠĠĠĠĠĠĠĠĠĠĠĠ
ty p
Ġvar s
set Enabled
ĠH igh
Ġimp ro
Vert ical
HasBeen Set
def s
Ġ200 4
itect ure
DR IVER
ĠST ATE
14 6
æ ²
ĠFunction s
Ú ¾
Ġadd s
target s
ĠT x
US ART
In ventory
ad v
ĠM S
has Next
Ġe quivalent
ĊĠĠĠĠĠĠĠĠĠĠĠĠĠĠĠĠĠĠĠĠĠĠĠĠĠĠĠĠĠĠĠĠĠĠĠĠĠĠĠĠ ĠĠĠĠĠĠĠĠ
Ġse d
S ibling
SERV ED
E FFECT
ĠA WS
Ġ Ä
U uid
lo ose
jack son
Exp and
FF F
ot es
Ġo thers
I mmutable
id ing
Ġgu arante
b all
INIT IAL
ĠT ab
WE VER
art ist
ãģ ¨
åĲ Į
12 6
AT OM
( ?
oo th
/ ******/
Ġ roll
ĠT y
ĠN UM
ĠCheck s
4 28
é ĥ
ĠA LL
15 7
ĠCon tribut
is l
ç Ļ
ĠHO WEVER
t ion
n io
dd y
Attr s
ib ly
> {{
Ġtool tip
r mi
un iform
Ġp ay
COL UMN
f re
ĠP ass
ont o
Ġset Up
Ġcomp atibility
PRO CESS
parse Int
R yh
DAP M
ĠC F
operand s
Ġh older
é Ľ
con sumer
iom mu
c rtc
Ġpass phrase
tr av
Ġss l
i ance
AL PHA
check er
Cre ator
SA MPLE
Ġli k
ENO DEV
mid i
ograph y
Ġ" @
g ray
Ġcpu freq
Ġnet dev
á ŀ
oc ial
12 1
Ġse l
Orient ation
Ġiss ues
mod ify
ĠBUS INESS
h ar
edit able
ic ial
Ġp kt
ul ong
ERR IDE
u zz
ĠD est
ĠI EEE
size i
di an
Ġaccompany ing
z alloc
17 0
Ġpro totype
inherit Doc
3 04
tim ing
I pv
V ol
ĠGO ODS
å §
Ġup grade
po ss
Ġp kg
Ċ ĊĠĠĠĠĠĠĠĠĠĠĠĠĠ
IB LE
UST OM
red is
ĠTHE ORY
K P
Ġ* __
s mp
Ġapplic ations
Ġup on
assign ment
An swer
writel n
Default s
čĊĠĠĠĠĠĠĠĠĠĠĠĠ čĊĠĠĠĠĠĠĠĠĠĠĠĠĠĠĠ
IO CTL
ra v
Ġon es
Ġsub scription
Ġch an
200 1
call s
are n
et ime
j peg
Ġd c
F lush
ad os
key frames
Comp atible
Ġc at
Ġh int
é ħ
N ER
MPL ARY
Ġrender ed
non atomic
ig u
lu splus
^ ^
ä» £
ĠPROC UREMENT
() }
Ġ ri
V D
æĸ¹ æ³ķ
be ans
EX PR
AD MIN
r tx
format s
k u
ĠSUB STITUTE
g d
ĠType Error
U CH
k bd
Ġs f
sk y
S US
ithmet ic
man ifest
N AM
ĠP ublished
VER IFY
RE AL
Base d
c dev
Ġlimit ation
")) )
ĠEXE MPLARY
Ġconsider ed
ar ity
al ic
en us
Ġme tric
ĠMem ber
alloc ated
nav Bar
rot ation
Ġ" &
w a
sh ake
ON ENT
Ġ$ @
ss aging
TH IS
x fs
Ġr atio
ĠCA USED
l tr
ĠP ower
ĠP acket
ital ic
Ġnum eric
Ġsmall er
ĠF ace
Comp ute
12 9
åħ ¶
node Name
. ')
x i
Ġ' --
P ref
sess ment
L K
spec s
Ġr and
h ard
13 7
b ias
IN ET
Word s
15 4
Ġdirect ive
u ary
m apped
666666 67
Ġto gether
AT FORM
F i
C ARD
Ġp or
put s
13 8
TH E
List s
Ġg fx
mat ched
Ġip v
role s
Get ter
čĊĠĠĠĠĠĠĠĠ čĊĠĠĠĠĠĠĠ
ld ap
Ch o
L BL
Ġsock addr
3 64
src dir
ĠAT TR
Ġt v
ĠG TK
Over flow
. ';
éľ Ģ
Ġa ck
ĠINTERRUPT ION
F AT
load s
Ġf amily
ĠE mber
cur ve
02 00
W ire
Ðº Ð°
E val
Ġhash Code
Ġor ient
f ab
I o
ë Ĭ
ĠĠĠĠĠĠĠĠĠĠĠĠĠĠĠĠĠĠĠĠĠĠĠĠĠĠĠĠĠĠĠĠ ĠĠĠ
DU CT
Ad just
Ð°Ð º
Ġm t
c amel
CON N
allen ge
BO OT
Ġw arn
Not es
Ġth ing
MM C
A ws
Ġ2 50
hd mi
ss id
et ing
are st
/ ************************************************************************
Ġ1 80
DIS P
13 6
ĠDISC LAIMED
de coder
S Z
ĠP ut
EX TERN
mg mt
Mix in
pro duction
Ġp ix
ãģ ª
entic ated
Ġsu ite
L CD
ĠF ailed
ĠEd itor
j iffies
Ġ' .$
ac cord
SETT ING
ĠA tt
ĠSO CK
ex panded
Ġ200 3
:: __
Ġ" __
Âµ ÃĦ
Ġdescri bed
à º
m os
ãĢĤ </
G INE
Ġinterface s
ĠG UI
ä½ į
ĠPH Y
T AB
UD P
Ġ' \\
resent ation
16 5
Com ments
i NdEx
Ġcon d
Ġt foot
SCAL E
lect ron
stat smodels
en queue
Ġf r
ĠRe marks
åĮ ħ
è¯ ·
location s
ĠB ar
13 07
Ġi r
d get
er c
Ġar bitrary
Des ign
: {
ĠBO OL
ĠMA CH
user Id
20 6
ĠVAL UE
Ġan alysis
å° Ĩ
} ',
Ġo map
TH RESH
o auth
Ġ( @
view er
Ġs atis
vis ual
n m
ill s
st m
lin eno
Ġfa de
I llegal
Î »
åº ¦
Ġs il
Ġwr apped
Ġres olution
(" ");
h ooks
ĠAPI ENTRY
')) ,
param name
Ġdim ensions
Ġp lus
sp ot
ĠB EG
v in
Ġlock ed
R U
Ġ* ((
ĠIn clude
ic ally
} `
ì Ħ
Ċ Ċĉĉĉĉĉĉ
Content Type
found ation
ĠAr t
Ġ5 12
04 8
ĠCal culate
View ById
å¦Ĥ æŀľ
unt u
Ġglyph icon
Ġop code
om ap
Ġun icode
Ġre size
: <
Ġs g
x hci
Ġpar allel
} ")
Ġse en
â ķ
sql ite
Ob servable
'] [$
reg ulator
ĠB T
we et
R P
navBar Cell
Ġtemplate s
M ust
Ġdep ends
Ġn umpy
ach able
Ġch o
dec or
Ġg cc
Ġocc ur
ĠSh ape
Text Box
Ind icator
Ġext ended
Ġpur pose
DA O
Ġport ions
U ME
w ater
Ġde tection
OR ITY
sn printf
Ð¾ ÑĤ
Ġm id
200 6
open source
Start ed
Ġrun s
" '
tensor flow
) <
Ġn d
ĠB ut
PHP Excel
q a
ĠA fter
ĠSh ared
Ġs ound
9 00
ĠĠĠĠĠĠĠĠĠĠĠĠĠĠĠĠĠĠĠĠĠĠĠĠĠĠĠĠĠĠĠĠ Ġ
( #
start ed
Ġgener ation
D SP
b es
man age
Ġf ar
Null Type
Ġph p
Ġa sc
UR ATION
Hand lers
havi our
get Node
W ill
im a
igr ations
Ġc ent
Ġc mp
æĹ ¥
Ġ1 0000
::_ ('
Ġx mm
Ġspace s
w iphy
Source s
null ptr
Ġoutput s
comp ressed
n ic
Ġcell s
ĠChar acter
b rowse
n id
ur st
Ġg reen
sh iv
ĠS ingle
å¯¹ è±¡
R V
Res olution
33 0
P si
callback s
PRE C
Ġtrigger ed
P en
de ps
× ľ
script ors
out h
Ġ"/ "
ĠH D
IC ON
ĠT E
av ail
re loc
Ġres olved
hib ernate
CALL BACK
Ġstat istics
tr ap
Ġlet ter
el t
) ((
ĠU Int
åĽ ¾
f ee
N LS
Char Field
Ġperson s
th ird
LE T
ue ss
opt im
Iss ue
Ġr d
Ġh dr
limit ed
ym er
Ġacc um
ĠStruct ure
Ġser ialized
La unch
te le
h at
åĬ ¡
> ]
ĠB inary
hy per
C ountry
pret ty
j ump
U GIN
Ġplan e
') [
Ðµ Ð¼
ATE G
d ll
ĠC LAIM
OPTION S
L ive
get Item
ĠSV G
ar ound
Re po
Ġint el
ï ¿
Ġs coped
R ing
Cal cul
15 1
ther net
ĠApp ly
clus ion
W T
Ġstd out
so ftware
ĠUtil s
Ġc rypto
M ultip
w as
Ð½ Ð¾
Ġmo ved
ĠP OST
Ġwh om
PLA CE
ĠC l
me ga
æ ¡
Ġsc heduler
Ġformat s
Ġdocument s
Ġpop up
wake up
B PF
TA IL
Ġ5 3
24 7
API ENTRY
Ġdir ty
Ser ialization
Ġl hs
current Time
iv o
čĊč ĊĠĠĠĠĠ
Ð ¶
Ġde t
R ound
22 6
$ ('#
A ff
Ġc os
ĠF F
on ed
instance s
with out
execut ion
register ed
à ´
ĠS L
Ġal i
st o
Ġth ird
e i
and id
Ġde velopment
ĠE l
B alance
tr on
row n
ĠOff set
IN V
Ġcompar ison
B oard
get S
P et
Ñ ī
// ****************************************************************************
WR AP
Ġobtain ing
ĠEd it
min i
orient ation
f aster
ĠT ensor
permission s
× ¨
16 3
åĲ Ī
un i
Ġ5 4
RE V
ph ba
PRO G
ãĥ ª
3333 33
ĠP a
ĠM T
è¿ Ķ
LAY ER
D iag
c rop
define Property
ĠR O
Ġpr ice
é »
Ġs pi
Ġ8 6
æĽ ´
is ode
çİ °
Ġm v
ĠBEG IN
Ġ' +
anit ize
Ġh orizontal
Ġg uid
è İ
est ing
nowled ge
A Q
r um
ĠC lean
Input s
g st
Instance Of
G OT
ĠAs ync
f ault
m map
Ġs up
Ġitem Members
Å Ł
Check Box
q s
ph i
DIS PLAY
Pro jection
STY LE
éĩ ı
Ġe asy
OK UP
chno logies
TA IN
Direct ive
HE IGHT
pro mpt
SI X
Ġbuild ing
Ent ities
M K
Â ģ
get Int
ĠS ample
pear ance
åĮ ĸ
riter ion
pa lette
17 5
ĠPro file
Ġ{ ?
right ness
Ġt ty
ĠS cal
] ["
ĠRedistribut ion
Ġg char
Ġm a
un ct
ĠHash Set
t ap
is a
e ax
la unch
par m
ĠRe place
ba z
} %
; ]
Ġsub stant
GA IN
Ġin et
bo th
ee p
r n
ĠS IM
cmd s
" %
Tool bar
Ġrespon s
< >(
CU MENT
Ġp ref
Re moved
ud p
ĠD NS
ĠL CD
Ġx hr
à¤ ¨
Ġp k
`, `
P lus
Ġiter ation
ç Ħ
Help ers
re lax
Ġj ump
TI F
ter y
St roke
Ġp thread
ĠM ar
Ġsearch Box
ĠF I
packet s
Ï ħ
Ġb rowsers
i ator
Mod ify
up grade
S uffix
f lip
ms o
face s
Ġper formed
Ġh dd
ro utes
(" _
Ġc i
Ċĉĉĉĉĉĉĉĉĉĉ ĉĉĉ
N B
lo od
ck s
ä» ¬
{ '
ĠE QU
Sample s
no me
Reference s
ex c
pl orer
Ġd p
und o
Ġmin utes
level s
Sm all
oler ance
Tool tip
Ġis l
inter action
ne eded
C od
Ġ' __
ĠB ody
ĠSTAT US
C y
ĠLink ed
Des er
W HERE
Ġhold s
Ġenc ryption
c annot
Ġre v
query Selector
h ance
Ċĉĉ Ċ
', $
q d
ĠL IB
Ġv o
ĠP WM
Res olve
Ch oice
ĠO FF
CT P
Ġimp l
p ot
AC L
Ġimport ant
Ġm aking
woo commerce
W AY
ĠTH EN
H ID
col l
me ter
Ġchar s
Ġoper ands
po ses
ĠU sing
Ġauthor s
Tw ig
Ġw s
P AN
åħ ³
Ġac ross
Ġl arger
Ġs r
Ġe valu
15 9
B g
net if
MA STER
Ġexact ly
ĠPro tocol
Ġdup licate
ï¿ ½
j ena
Click Listener
is ing
000 4
iz ations
At A
filter ed
E IO
Ġdoc s
æ Ļ
let ing
Ġtx t
in formation
Ġt ip
Ð° ÑĢ
ĠF oo
la zy
Ġ*/ ,
cp lusplus
Ã ĳ
Ġph ysical
R aises
B SD
E mbed
F rag
ĠReg Exp
ãĥ¼ ãĥ
Ċĉĉĉĉĉ ĠĠĠĠ
Ne gative
Ġs uggest
Ġre cv
Map s
un ded
ĠD istribut
Ġpoint ers
re ng
atern ion
Ġp ayment
Ð¾Ð ³
k control
ĠDE AL
ec a
Ġresult ing
Ġ Ñĥ
s lf
ĠS ND
] ',
!! !!
4 50
DI ST
Min imum
........ ........
offset s
agent o
} _
ê °
web site
ĠM anager
Ð¾Ð º
str dup
Th rows
stat istics
Ġa ux
Ġk vm
ĠS A
io v
Ty ped
2 30
GL uint
ext ended
æ¨ ¡
ĠS em
track er
periment al
Ser ialize
Ġas set
r df
ser ve
SA VE
5 34
w ant
Ġvis ual
Ċĉĉĉĉĉĉĉĉĉĉ ĉĉĉĉĉĉĉĉ
Ð½ Ñĭ
RE LEASE
reg istration
P ARE
ãģ ¾
Ġ4 3
Ð°Ð½ Ð¸
éĥ ¨
M IL
amp ler
ĠD T
Ġ9 5
Wr ong
a udit
Ġre vision
"] ["
pro cessed
g ap
ad or
ĠD rop
Ġon mouse
) `
cho ices
Br ush
O DE
14 8
ĠWR ITE
01 6
D NS
ĠRE TURN
p info
Ġf f
ĠF i
dis c
VE CTOR
(' %
D to
39 0
e valuate
Ġin coming
ht able
not ice
éħ į
gre es
md dev
Ġenter ed
ë ¡
Art ifact
P ag
_ "
it a
Ġd m
ĠGL uint
Ġth ough
15 5
re maining
k ubernetes
Thread s
comp ar
sub stream
Ġcon v
Ġprob lems
asc ii
19 7
CR IPT
SER IAL
f riend
Ġre interpret
[ [
D if
Http Request
Ġf allback
ĠB ox
start sWith
o y
cell s
DEFIN ED
WN ER
ĠDEAL INGS
Ġ/* !
faster xml
c redentials
20 3
e ss
g pl
ph an
G LAPI
Ġvert ices
res olved
US R
Dir ty
Ġcomp iled
éĻ ¤
Ġin sn
lock s
ĠFUN CTION
check sum
M iddle
IN X
C AT
SH OW
li x
m or
ĠNON INFRINGEMENT
02 0
(" ")]
Ġcal endar
xFF FF
ent ly
v dd
ild card
H ow
Ġser ialize
Ġrequire ments
Ġp redicate
Ġ ig
IM G
Ġm icro
Ġ Ø§ÙĦ
t sk
vol tage
M PI
TE CT
Ġnormal ize
2 25
GU AGE
Thread ing
mut able
ibr ation
AL TER
sub mission
Ġsubstant ial
S ENT
lab s
IS R
h id
Te le
a el
PACK AGE
Man ifest
ĠA pi
h n
sr v
hide SubMenu
Ġ$ ('
L inux
R AD
vert ices
ĊĠĠĠĠĠĠĠĠĠĠ ĊĠĠĠĠĠĠĠĠ
ans ion
Ġu c
P TED
Ġp oll
Ġrender ing
LI BR
Ġli braries
äº ĭ
ic ult
77 7
x FE
Alloc ator
Ġ4 7
Ġpro mote
ĠSe q
M ime
Ġ( \
article s
ĠHel p
z end
ro bot
Ġsh utdown
Ġel s
tr ip
Ġ5 2
> *
Ġi b
Ġc url
ublic ense
P DF
urn ished
Ġb roadcast
ç ķ
Ġin c
Ġr adio
17 9
Ġ( ;
lu c
Template s
Ġl ittle
B lack
gu ard
it ation
Pos itive
N PC
16 2
ir th
14 1
Ð¸ Ñģ
Ġdrop down
01 3
Ġs ublicense
Ġ7 68
work s
d ro
Ġed ges
COM PI
if etime
M V
p ublished
her its
ASS IGN
vol ution
i eee
g ulp
b one
Ġa way
Ġm SV
Def Vals
ĠL ength
ad vanced
ĠP attern
Compar ator
ĠmSV DefVals
re ceiver
Ġt icket
Ġaut orest
ynt he
' />
Ġcomp ilation
entic ate
C ES
PO INTER
Ġposition s
n it
" ][
read able
(" (
NO RE
ume d
hem as
Ġ/ .
ëĬ Ķ
min us
accord ion
re ceived
B ra
e y
Ġsystem s
L ex
UT C
strict ed
Ġsever al
Collect or
Ġ --------------------------------
ĠT F
pol ation
M Q
Id le
du ces
files ystem
Ġ* **
Get String
")) .
Ġinsert ed
m otion
Ġreg istration
stream s
Ġfloat ing
Con v
Ġsp in
AB C
DESCRIPT ION
Ġover lay
J av
= _
b roadcast
c w
Ġs low
rott le
access or
Ġexample s
G re
Ðº Ð¸
Ext ent
å¹ ´
ĠTemp le
åŃ Ĳ
Ġ? ?
Callback s
g ateway
uf act
p lt
ĠD ialog
P icture
fin es
\ :
LE EP
Ġgover ned
P reference
co eff
čĊč ĊĠĠĠĠ
Ġjav adoc
e z
Or d
Ġexp lode
Lay ers
dat as
ĠME THOD
B LE
ĠSt atic
Ð» Ñı
ab ling
SY SC
ĠF E
Reg ular
Ġlog ged
' <
Ġm lx
) >
S yn
iv ed
å® ¹
ud a
Heading Color
D AY
O ID
) (((
Trans late
Ġconf lict
ĠP latform
Ġ4 9
ĠSte p
PRO GRAM
ĠA v
ĠHt ml
0000 7
ĠPar ser
Ġcap acity
= ="
ĠCollection s
Ð°Ð ´
Ġear ly
S ur
de tach
ĠO racle
ç» ĵ
ir cu
da o
N F
m ong
Ġ200 2
n od
Ġf w
n P
ch ie
ook ies
Ġt b
fix ture
pth read
Ġh d
Ġh ci
èİ ·
ON SE
SP H
Ġs af
20 8
Message Box
ai lability
Ins pector
min imum
({ },
Non Null
32 8
ĠP ACK
ri ends
sb i
In crement
Ġman age
Â ¯
h cd
ĠP K
SE PAR
A nt
C ity
20 5
delay ed
2 13
Log ical
ID ENT
EXCEPT ION
ĠV ideo
ĠL im
ĠW rit
sub section
P ager
PRE V
ĠP C
SOCK ET
! ",
Comp any
op eng
Dependency Injection
************************ ****
amp ling
tern at
g ol
Ġw ish
reng th
é ĺ
Json Property
ĠWAR NING
Ġcon sumer
so lete
constraint s
g amma
Ġr pc
CR C
Ġc t
18 7
th rough
Ċĉĉĉĉĉĉĉ ĊĉĉĉĉĉĉĉĊĉĉĉĉĉĉ
ĠInit ial
ĠLay er
Ġle x
Ġ& $
Ġseg ments
assert Raises
Â ¢
ĠO pt
erm ine
ĠDe finition
ĠD river
Ġaccept ed
3 75
Mac ro
}, {
Desc ribe
Ġm illiseconds
ĠLe g
Sm art
Ġcre ature
ver b
ĠCOPY ING
char ge
Ġsection s
E scape
ph ere
Â Ń
0 30
}{ \
ore d
SV G
AD IE
Index Of
ĠIn tern
to Array
set Name
P V
Ġe u
v reg
parent s
Ġe th
Ġp ress
pr t
Ġq emu
Ã ĺ
List View
04 00
Fin ish
Ġbu ff
PER M
il le
20 9
yy yy
Ġ6 3
Ġinterrupt s
Comp ilation
W ID
33 7
ializ ing
OPT S
Dep loyment
st ock
sc reens
W alk
({ '
Ġp sz
Ġm x
Ġ( #
mem Separator
ĠF ull
mp i
Ġman ually
x hr
ĠFrame work
match er
Ġt un
queue s
Ġ1 23
Ġh ot
S CHED
ht m
Ġport s
in str
AS M
ĠC ase
De leted
Ġlevel s
A URA
Ġwindow s
à ³
Ġstart up
Ð¾Ð ±
Ġ< >
AS CI
TRIG GER
D id
ĠP LL
ĠM M
à¤ ķ
(" ",
reg ular
Inv ocation
In str
Table Name
ĠSk Bits
vide os
G PU
Ġopen ed
LO OP
Ġ02 111
ad b
s ans
sp er
åĪ ¶
ĠB ad
Plugin s
ys q
A INT
ir y
Ġb io
"> -
ĠTrans form
ç» Ħ
ĠSD K
ac pi
ph ab
Tree Node
bat tery
Ġc ountry
Text View
lo ver
Http Servlet
Ġdirect ories
ĠÐ½ Ð°
oh n
inherit doc
ic mp
ĠGL float
Ġent ities
ä¾ ĭ
F lash
P t
Compar ison
Ġ__ _
å ģ
Ġ* ************************************************************************
íķ ĺ
ser ialized
Ċĉĉĉĉĉĉĉĉĉĉ ĉĉĉĉ
ma int
S LA
MLE lement
k lass
æ Ħ
Ġn ullable
\/ \/
re quires
State Exception
Comp at
document ation
Rel ated
è° ĥ
angle s
expect s
CONNE CTION
ĠB us
T icket
Ï Ĥ
qu ad
ĠArray s
ĠQue ue
an ity
p or
18 4
Widget s
search Box
Ġtab index
ĠType s
% =
Ġle ading
Ġ[ ])
Co ins
s at
ge bra
ĠAtom ic
comp leted
M igration
Ext ended
. &
b ower
Ġ' );
( ../
gle w
ĠL a
re view
2 17
L IGHT
Ġt ax
; "></
åĮ º
att ack
lic ations
lear n
root Scope
Day s
D st
Ġdepend ing
Ġlik ely
Ġint ro
} ],
qu ation
Inherit ed
IF ORM
Ġ< ![
pe ction
ĊĠĠĠĠĠĠĠĠĠĠĠĠĠĠĠĠĠĠĠĠĠĠĠĠĠĠĠĠĠĠĠĠĠĠĠĠĠĠĠĠ ĠĠĠĠĠĠĠĠĠ
Ġgr pc
x fe
Ġb lo
//**************************************************************************** *
Ġm c
space s
:: -
è§ £
ch ool
ãĥ ©
C ross
bas ename
Comp ile
add itional
04 3
m peg
; ",
rc v
ĠRe spond
ug ar
S SE
pre g
Ġ( {
get Path
Ġformat ted
å° ı
ng ular
re pos
M ISC
ĠA li
ĠDe v
place ment
Draw able
Ġad res
a head
Des ktop
ĠC K
Sh utdown
CRY PT
Y UV
k k
; "><
Ġc loud
Ġstr ong
ĠP NG
Ġp ast
do es
ĠEn ter
Pro pagation
s uggest
id ad
av id
Ġ1 44
Target s
] ):
__ ["
T l
g res
Ġx s
Ġm obile
ĠC la
oc ab
Ġh our
Ġhapp ens
Y es
Ä ĩ
Ex act
GR A
Ġh r
Bu ffers
Tri m
In tern
88 8
xy z
Ġg a
R G
Ġident ify
D en
As String
Ġmap s
Ġoffset s
B attle
Ġfiles ystem
Ù Ĥ
Ġdo cker
az el
dim s
sv c
Co ordinate
Ġr ad
l ite
un map
Tab Index
Ġco ins
vers al
Ġar row
St ar
ĠU SER
ta iled
Y P
quot a
ĠP r
/* .
else if
ĠPro vide
auth entication
coord s
ĠGL sizei
20 7
ĠA B
ob s
ç ³
ĠDr upal
Ċ ĊĠĠĠĠĠĠĠĠĠĠĠĠ
Ġclient s
": [
spec ified
ĠSQL Exception
en es
ss ize
ĠD S
b ing
Ġcol lapse
Ġas n
re w
tribut ion
éĢ ī
xFF FFFFFF
ĠN ative
pre pend
2 60
PROTO COL
Ġin crease
"/ ><
then Return
C urrency
'] :
Ġser ializer
f id
Ġ{} ",
ve al
Ð°Ð ²
F un
h ouse
D EN
Ġre gs
be at
ro zen
ĠT REE
' /
2 12
Re peat
li min
Ġs heet
SA FE
Ġpe ople
set Property
Ġre cipient
è®¾ ç½®
Sh ip
tl v
In to
(' -
16 7
open api
9999 9999
cogn ized
Ġp b
d sp
count s
ĠUn icode
19 4
Ġdid n
- (
"> .</
ide d
av or
>> >
D TO
Ġde cor
ĠM C
unc heck
W I
Ġcol s
åĲ ¦
ĠIm Gui
_ %
deb ian
ĠC M
åº ı
Un defined
Ġn om
25 4
un ref
å½ ķ
P ublish
M ULT
Ġres pect
26 3
Ġreference d
Ġch oice
q c
DE S
der eq
Ġh ooks
'] ->
ne ur
ant ics
part ment
Ù ¾
// ========================================================================
Ġm u
56 789
ex press
Ġvis itor
Ġconst expr
INT EL
19 0
ĠW idget
MD P
W nd
Ġme di
str ipe
Ġfollow s
} ),
Le ss
mode s
mix ins
AT ER
" .$
PRO DUCT
ac iÃ³n
x aa
? )
Ä ħ
ĠH ere
H PP
comp uter
17 4
Ġstruct ures
d on
let es
h b
ON Y
ãĥ¼ ãĤ
ob server
Ã ļ
Version UID
oz illa
ĠCon dition
dr m
ĠI con
COMP ARE
ĠConstant s
Ġtext area
ĊĉĉĊĉ ĊĉĉĊĉ
Info s
SE CTION
Ġcustom er
01 7
Ġen crypted
ĠEx ecute
Res erved
Ġf l
In f
Ġcon cat
it able
Ġg boolean
w est
TH O
Out come
inu ous
Ġ= ================================
27 0
Ġa cpi
ĠRE S
Ġfilter ed
ĠA DIE
âĢ ľ
2 80
Ġe valuate
q os
Ġa u
ĠEx port
po ch
c line
C b
Unt il
Ab ort
sp ro
ĠF IF
à¸ ²
/ ,
ĠA re
v fs
ĠUn supported
ind icator
23 5
S ym
Ġp retty
part icle
Request ed
draw able
mer cial
n dev
str ategy
Ġget Name
Xml Element
IN F
Ġ ub
Ġ= ================================================================
DR M
PRI ORITY
ĠG C
K B
"> )</
bu ilt
F lat
{ -
ä¸Ń çļĦ
eb ook
From String
S MP
th ree
n pc
Ã ķ
al ive
Ġb log
chno logy
lav or
ĠØ ¨
seg ments
ì ł
oc c
O s
000 8
Ġlo st
u ro
Ġhe ld
ĠRe vision
Par a
' +
**************** ****
ran ap
re cursive
et y
mb hc
Ġ1 10
ĠT S
Ġf c
ĠM ix
à¦ ¨
Render ing
sing leton
f ork
o a
è¿Ķ åĽŀ
Ġ9 1
th anks
} ";
ens ing
Out Of
Update s
ion e
ne gative
ra c
Spec ific
ĠUN IT
P rep
scr atch
01 4
Ġin te
D J
qual ity
j j
Ġmr gn
g ree
ĠF lag
VER TEX
ide s
ë ¥
Buffer ed
ì ŀ
RO LL
M is
26 5
ĠM X
"> $
Ġif rame
max imum
db s
ĠRe mote
C ycle
(" ./
S olver
m as
Co lour
Ġre load
account s
dep loy
b la
Ġstr ategy
ĠEx ternal
ToolStrip MenuItem
Ġpass ing
34 5
fra c
NS String
Ġleg acy
L M
M PEG
ĠP e
*) &
andid ates
ip y
Ð½ Ð°
Ġsn printf
15 8
Ġtranslate X
ĠTh at
Ġ Ċĉĉĉĉ
Hash Set
N M
in ventory
real m
ĠS ocket
w pa
un wrap
ĠK ERN
M otion
n h
Inter op
Ġn la
con verter
ane ous
Project s
CO VER
é ĸ
ĠThrow able
Index es
res olution
ĠE mpty
l st
n k
P AL
Ġ{ *}
ĠN ormal
m irror
ĠA PP
éľĢ è¦ģ
22 22
B AN
ur as
mut ed
Ġs lider
? "
w f
ĠComp are
ĠID s
/ (
k vm
ĠC AP
è Ĭ
Ġdefault Value
d raft
Î ¼
Ter min
5 000
æı Ĳ
19 3
PRO JECT
6 55
17 8
To Array
dig it
DI P
Ġlook ing
Ġread s
0 33
. (
3 000
a id
ST EP
Ġ ENABLE
S CO
v ote
q g
ĠFe ature
Ġm dp
ĠT AG
g adget
Ġ2 40
Ġre view
ĠH ome
F ooter
æĶ ¹
: ]
Sort ed
ST OR
ring tone
Ġ čĊĠĠĠĠĠĠĠĠĠĠĠ
S ince
Ġman aged
') {
box es
ĠR x
CO D
Ġed u
Ġgo es
Ġob server
is Null
cast er
ĠS afari
ĠU UID
j boss
get All
vis or
Ð ¡
Ġf il
Enc ryption
ck o
File Info
Ġ ></
Ġas ynchronous
or row
Ġ{ })
Plan e
ĠRout e
w ave
el s
align ment
ìĿ Ħ
ĠS ol
ĠP erson
Ġiter ate
p wm
2 33
type Name
COMP LETE
g f
r idden
SS ING
bl ur
may be
Ġse parator
E PS
v an
Ġad apt
irc ular
G M
H L
INTER VAL
uncheck ed
26 9
DEP TH
TIME STAMP
Lat Lng
D SI
15 3
Ġdecla red
Ġ quote
ĠD ig
ĠB ook
*/ ,
s izes
Ġwork space
ĠAUT O
C ent
, #
Ġf irmware
st s
Ġor d
24 8
wr ong
Ġhelp ers
luc ene
] -
ĠEnv ironment
vis ited
ĠB ool
De vices
Ġle af
Ġph y
F ollow
V elocity
on us
WA KE
IZ ED
Ġh a
fore ign
ab it
om a
Ċĉĉĉĉĉĉ Ġ
pe ek
cor ner
s lab
non ce
sd io
[] {
Ġt id
We apon
32 5
.* _
st h
ĠM ag
Ġin form
User Id
urren ce
u ge
Ġst derr
map per
e asy
ul er
In stant
host s
ĠA CE
ĠX C
ĠAss ign
Ø ¹
y our
Ġwrit es
v ia
ĠC lock
()) {
author s
str to
Ġi e
Ġlog s
ce stor
Ġexpress ions
k v
/ ********************************
ĠGEN ER
ĠQ U
AL T
Ġj j
hedul ing
insert ion
add All
phab et
F ee
apt cha
ĠM obile
Ġend orse
25 8
Ġar m
Ġp x
Ġo ct
Ġman ual
gre y
Ġc le
Ġ* ****************************************************************
Ġindex es
Ġspec ification
r te
language s
ĠS EC
"> =</
ĠD AC
ĠIN DEX
d atab
ĠĠĠĠĠĠĠĠĠĠĠĠĠĠĠĠĠĠĠĠĠĠĠĠĠĠĠĠĠĠĠĠ ĠĠĠĠĠĠ
E q
ip edia
a es
ĠT ri
Ġ[] *
Ġsh ader
Distribut ion
ĠSpec ial
A ge
; =
19 6
Ġtranslate Y
< >
Ġ200 1
all ing
Exception s
Ġch anging
Pa lette
A ck
ç³ »
u ation
Ġscr atch
æ Ł¥
out ube
() -
Position s
'=> $
I MPL
Ġside bar
Tab s
ĠC LI
up s
Ġpart icle
lan e
Le af
l ng
ro py
SPH INX
f ld
Ġview port
Ġ= =====
= /
Ġc line
k ar
Ġf illed
Ġd eriv
ĠI gnore
Ph oto
H ooks
ab e
Ġj e
gorith ms
ah c
tax onomy
lic ated
se par
answ ers
S leep
M UT
Ġon key
Ph ysics
č ĊĠĠĠĠĠĠĠĠĠĠĠĠĠĠĠĠ
Ġ ])
ĠBe gin
A sc
G X
RESP ONSE
(& (
(" {
ĠAlloc ate
H H
J O
ÑĨ Ð¸
l un
View Model
A ES
ĠX HTML
MS K
ĠExt ension
R SS
z d
Ġcon verter
SECON DS
work flow
Supp lier
Ġ($ (
Track ing
éĩ į
Ġt ex
ss ian
30 6
LIN UX
PL ATFORM
p Mac
Ġshow ing
8 75
ĠIS O
ĠPR IMARY
is Function
ĠP DF
ĠM UX
ĠÄ ĳ
Ġso ft
9999 99
Ġfollow ed
} (
(_ ("
d amage
Ġa verage
Ġ... )
23 7
Cell s
oom la
re cent
ĠBY TE
scal ing
25 3
% .
IP v
Doc s
' })
ãģĻ ãĤĭ
de mux
LE M
cl ang
ACCE PTED
Or Empty
Ġ[ `
Ġpro be
has Class
comm end
Ċĉ ĠĠĠĠĠĠĠĠĠ
Ġt ANI
LE SS
12 00
... "
Ġwh y
AI LAB
comp act
09 6
man aged
ç¬ ¦
P UBLIC
Op acity
Ġjo urnal
E p
å· ²
Ġde cl
Config ure
ĠA ir
STR AINT
Print er
Ġfix ture
f atal
Ġc andidate
Ġnew ly
>. <
cover ed
Ġhost name
sp y
las hes
ĠL td
ĠR GB
Ġtra iling
Ġh ack
BL K
par s
Ġalign ed
RO UT
ĠD omain
pro j
Ðµ Ð»
ĠT L
PM C
ĠInt ent
Ġla zy
REA K
Vis it
weight s
Q R
sub package
De ep
Log ic
depend encies
ĠR ight
Ġ ĊĠĠĠĠĠĠĠĠĠĠĠĠĠĠĠĠĠĠĠ
Ġf urnished
Ġm ajor
ĠN T
ĠLo op
Ġdig its
s lots
ĠC ell
ET CH
Ġcla use
Ġnot es
77 77
Man aged
D emo
Ġc ipher
im ap
Dim ensions
ail y
ĠĠĠĠĠĠĠĠĠĠĠĠĠĠĠĠĠĠĠĠĠĠĠĠĠĠĠĠĠĠĠĠ ĠĠĠĠ
IO D
me md
to s
REG S
ce eds
Ġwhite space
B ank
ers pective
SC REEN
ä¿¡ æģ¯
Ġ lic
ĠP A
Ġassert False
De cla
itor ies
un link
Ġ8 9
Marsh al
ĠM arsh
sh rink
add Action
Cap abilities
D LL
k r
qu antity
Ã© s
E O
Ġg lob
Ġk ill
* \
mt u
è® ¤
åı ·
a co
ĠConfig ure
env iron
Ġ9 6
Ġ* >
ĠO verride
openc v
g db
file path
COMP ONENT
V I
Ġre ached
Ġre levant
o ch
ist ency
View port
impl ify
pare n
Error Message
Ġstate ments
Sp acing
pic ally
Ġv p
(" ../
17 6
re moved
comp an
ot os
pre p
Ġc ity
<<<< <<<<
v fe
ot or
Ġ( ($
19 8
Ġcoord s
F it
I EEE
V L
f k
symbol s
ĠD oc
o on
er ing
ĠM ore
Ġla unch
Ã »
VE C
f ac
Ð Ĵ
SEPAR ATOR
88 59
pc ap
Ø ¬
ĠL et
ĠG TEST
Ġ_ ('
S MB
n z
Ġmatch er
depend ency
d id
Reg Exp
Ġreceiv ing
tag Name
p reserve
ne eds
Ġus ually
Ġ5 000
en ance
ĠD irectory
32 4
read l
Ġst ores
25 2
b mp
: .
Ġserial VersionUID
ĠY our
VAL UES
Ä Ļ
é ļ
SY N
çĶ¨ æĪ·
AP B
ç ©
Ġ* ********************************
AB S
ĠNot ification
eng er
Un supported
ĠComp ar
G est
b en
D ummy
la d
sp h
æ³ ¨
Ġ' (
ĠSe cond
click ed
j ac
/ @
Ġ ans
Foreign Key
Ġ@ }
Ċĉĉĉĉĉĉ ĠĠ
âĸĪ âĸĪ
88 88
at ched
ĠG R
ex act
APIENTRY P
ĊĠĠĠĠĠĠĠĠĠĠĠĠ ĉ
al one
** :
SS ID
ACT ER
ĠDefault s
g wt
M i
22 1
z u
Ġm ass
*/ )
Ġ\" %
V s
Pr incipal
ĠMO DE
Ġr tl
æ¬ ¡
Ġterm inal
Ġ" .$
Ġp lain
Ġb nx
Re store
am i
01 5
Atom ic
ĠT IME
ip c
J OR
Ġm ime
ĠConn ect
ĠL LC
disp ose
ĠF ill
ĠTra ck
se en
13 1
eb p
ed ges
res olver
ĠR FC
Ġit emp
W ave
w ell
FA ST
ime dia
Ø§ Ø±
cap ability
DU MP
Ġin finite
Ġp ow
ic ing
mo val
chan ism
ĠReg ion
ä¹ Ł
port al
/ ",
Ú ¯
sg i
ĠTH REE
get X
org an
= `
Role s
Ġre commended
istr ator
ent ially
Ġlo s
f our
Ġd l
s ap
G lyph
ĠThe y
T B
ĠP ur
ĠMan agement
Dock er
Ġt cg
p la
14 2
Writ able
res enter
âĢĵ âĢĵ
Ġa ws
ser ializer
ĠD ynamic
23 9
Up grade
rout ine
pri o
Ġg ives
ĠI ss
no op
32 7
Range s
M ar
s udo
bind ings
dap m
H ierarchy
). </
åħ ĥ
ke leton
alloc ator
Bu ff
aw k
6666 6666
->{ '
SHARE D
poss ible
ase d
Ġput s
pos al
Cap s
ĊĊ Ċĉ
ent e
ĊĠ Ċ
Ġ čĊĠĠĠ
Ġf old
IP H
r ant
fil led
28 8
0000000 4
ATOM IC
Å Ļ
22 8
e of
Ġaff ili
v ement
ĠSe lection
Imp licit
C LA
Ġres ume
} ");
ER A
PRO FILE
Ð°Ð ¹
å§ ĭ
ìĹ Ĳ
k obj
R pc
ĠS ync
serv ation
aly ze
BUILD DIR
li braries
ff e
PL UGIN
V ehicle
Ġun able
PK T
Ġix gbe
ar ily
qu is
Ġex c
gol ang
ĠEx tract
C USTOM
"> :
mark down
SIGN AL
encrypt ed
Ġse ctor
EX TRA
enc il
/ ><
Ã ¯
G N
Ġl in
Display Name
ĠIN VALID
[] []
ĠE mail
user Agent
pan ic
C MAKE
ĠU TC
pol ymer
cl js
Grid View
19 5
RE MOVE
ow l
igu ous
sw ift
ST S
Ġne ar
CCCC FF
Ġacc ur
i y
æ ¸
Connection s
insert Before
handle d
ĠF ail
Ġsc si
H alf
Ġpre view
c is
An alyzer
r st
AP H
Ġv e
jav ase
ĊĠĠĠĠĠĠĠĠĠĠĠĠĠĠĠĠĠĠĠĠĠĠĠĠĠĠĠĠĠĠĠĠĠĠĠĠĠĠĠĠĠĠĠĠĠĠĠĠĠĠĠĠĠĠĠĠ ĠĠĠĠĠĠĠ
REC ORD
` ;
Ġp v
FAT AL
Ġng x
C String
Ð¾ Ð½
sd p
0 75
Ġr p
S OF
im ated
Con str
a ac
ĊĠĠĠĠĠĠĠĠĠĠĠĠ ĊĠĠĠĠĠĠĠ
Dup licate
( ["
p itch
Ð Ŀ
ASCI I
ip er
ENT S
Ġmer ged
lo urs
Ġ>> =
Ġd as
IL T
PER F
>( </
havi ors
Ġa ffect
00 9
Ġ1 04
ree mpt
Ġ"\ \
G ap
Match ers
B roadcast
i op
Ġ* >(
ircu it
Sh op
ĠOR DER
<!-- [
per form
å¹ ¶
Ġdecla re
Ġ ion
AD O
Bound ing
ĠDet ermine
æŃ £
ĠB LOCK
ĠOPT ION
Ġ{ !
Ġs pe
first Child
D H
amb da
Ġp red
Ġrelation ship
'] ),
ĠEX ISTS
list eners
se ll
Ġun safe
Ġrange s
ĠVAR CHAR
Lock ed
wall paper
C op
ĠW in
Ø§ ÙĨ
y ellow
Transform er
comp ose
Ġinstall ation
Ġexecut able
ĠFor ce
o e
s ibling
ì §
/ ></
Qual ity
is olate
Ġkey board
m ad
PL ICATION
THRESH OLD
Ġi w
ĠL ED
Object Type
Ġ ###
Ġresponse s
Ġshow s
u an
Ġcomp ression
Ġgr adient
un pack
Ġorient ation
Ġmean ing
P ull
è ¢
RO ID
ĠInt el
ed er
ĠCre ature
s ip
; )
Ġt abs
COUN TER
ĠC luster
Ca ption
List en
/// <
Ġdep loy
M isc
Ġro utes
(' :
Ġen counter
âĶĢâĶĢ âĶĢâĶĢ
er os
^ \
co v
ĠR OW
å¸ ¸
ĠCom ment
Bound ary
Re spon
Ġ" ]
peri ence
Ġ' ?
IC Y
Pre c
LE S
22 9
ĠAr ch
DEC REF
PAT TERN
AS Y
full screen
899 4
int o
x fer
2 16
f y
ma ss
25 9
ĠFIF O
h dl
Ġ" ,"
Is Valid
LO OKUP
ĠDes ign
mploy ee
front end
Ðµ Ð´
Ġ ĊĠĠĠĠĠĠĠĠĠ
eng lish
Ġmag ic
Ċ ĊĠĠĠĠĠĠĠĠĠĠĠĠĠĠĠĠĠĠĠĠĠĠĠĠĠĠĠĠĠĠĠ
User Agent
Ag gregate
Ġ0 3
bound ary
Sw ift
Proto s
ĠDE C
vis itor
format ter
NET WORK
Ġth ink
Ġitemp rop
ĠS uccess
COMP AT
SW ITCH
çĽ ¸
02 2
pol ate
Mouse Event
0 64
Ġ ur
ĠI B
PIX EL
dec rypt
Click ed
n os
ss i
and atory
conf irmed
Ġsee k
YY YY
td b
ĠI Enumerable
M SC
Key Value
Ali ve
Ġman ifest
ĊĠĠĠĠĠĠ ĊĠĠĠĠĠĠĠ
ãģ ¦
Ġw ww
ile s
El se
H over
Col s
Ġ5 7
Ġk zalloc
ĠCh ild
Ġloc ated
è £
}, {"
; //
\_ \-
Ġ layers
om an
? ",
Ġ lab
17 7
S ID
Ġboot strap
Open Tl
ĠU ri
Sh ard
AG ER
U C
ĠF actory
ä» ĸ
> }
h ours
EX PECT
Rot ate
XXXX XXXX
= ${
Ġser vers
U MP
Prob lem
tr ast
S LEEP
Ġa utom
ĠS ite
) ")
sys fs
UL ES
pp c
ĠW L
(( *
Ġ0 8
R oll
Ġs ay
COMM ON
par allel
ĠLe ft
io mem
pixel s
, _
H A
tr action
Ġcount s
ĠL IST
co d
ific ant
ver sed
d os
group ed
Ġqu ant
Ī ëĭ¤
client s
if p
Data Frame
tr ail
F requency
c gi
lic as
ĠB ootstrap
ro to
ĠP an
ĠG st
screens aver
è® ¡
K nown
37 9
Ġf t
OnSearch Select
pro viders
N K
Ġp f
23 1
Ġpattern s
ili z
Ġb a
ĠAc cept
T icks
Al ready
k an
P i
~~~~~~~~ ~~~~~~~~
2 18
A UX
Ġbe an
Ġ Ùħ
æŃ ¤
Feed back
× ©
Ġs ink
C at
k kit
ĠB NX
SC SI
Ġh is
sect ors
Depend encies
bit coin
R ating
Ġ7 2
ACT IV
E v
][ $
FR AG
Ġs Log
Coord s
Ġj iffies
ĠV olume
dat atype
Ġe ps
s x
è ª
Cal c
} ]
Str ict
ĠR oot
ä¿ Ŀ
à¤ Ĥ
ĠDep end
ĠP I
? .
ĠJ Text
ä¸ »
Ġcl js
ATEG ORY
Ġch at
Ġp Mac
ab fd
im c
LE G
Instance State
H ot
Ġd rivers
FO REACH
Ġ^ =
Ġ ign
case cmp
en n
Ġattach ment
Sc anner
R IX
P lain
Ġb ra
Ġel f
m box
tr ins
Ġh ours
DB C
5 01
ĠC ategory
Ġu art
> #
J NI
EN DED
23 8
ĠAct ivity
30 8
x or
Ġon line
Ġequal To
INS N
m w
rol led
ç½ ĳ
Ĥ ¬
ĠSN DRV
ĠO MAP
ĠT otal
32 6
Ġpost s
ĠMax imum
Conf lict
Ġc am
Comp act
Ġc riteria
v nd
Im mediate
M utable
.' /
B AND
Ġ( ))
Ġd yn
Ġde coder
C redential
P ressed
ĠD b
sp ended
Data Set
ĠS ans
Ġb i
) ](
D em
Ġbet a
I FF
Ġmin or
ren a
åħ ¨
Ġnormal ized
namespace s
INT ERRUPT
x path
R ING
30 3
Ġcomp uter
B P
Ċĉĉĉĉĉ Ċĉĉĉĉ
Ġvector s
=" ${
Ġv endor
ex pires
ĠDEF INE
Ġcalcul ated
ĠAC PI
ĠValid ation
Ġ<!-- [
ĠC RE
ĠP in
strip ed
ĊĠĠĠĠ ĊĠ
24 9
d q
é¡ µ
cor ded
oc used
è® °
config s
diction ary
ĠC WE
Ġpro cesses
* );
ĠMet adata
b att
TAIN ER
Ġpur poses
ore m
Par allel
Ġpro cedure
Ġpro duce
IC R
E valu
[ @
16 1
d AtA
Res er
ĠAR G
× Ĳ
Ġth us
Disp ose
Ġwe ights
doc utils
cred it
assert That
Ġsecond ary
R AT
i ra
ve locity
è¢ «
ĠG MT
ĠT LS
ok ia
---------------------------------------------------------------- ----------
SPE CI
Ġex change
S uch
Ad apt
Ġlisten ing
; #
ãģ Ł
Ð ŀ
2 77
get In
ĠB FD
Di gest
r nd
Ġ(* ((
30 9
2 11
r ates
Ġf ac
ĠApp le
ĠF lags
Ġup dating
æ ĵ
ance led
MMMM MMMM
get Column
Ġembed ded
x mit
2 15
Exp licit
ç µ
display Name
ĠF unc
At tempt
Ġmac ros
start swith
log out
ok emon
Ġn ic
CNT L
č ĊĠĠĠĠĠĠĠĠĠĠ
Ġa f
Ġnew Value
Ġen coder
Ċ ĊĠĠĠĠĠĠĠĠĠĠ
os able
ĠCon s
22 7
r tp
ĠP assword
qu eries
get Resource
mark up
Act ual
Report er
áĢ ¹
P AY
G reen
Ġ' .'
clear fix
AV AILAB
li e
ip i
ì ļ
" ]);
i u
la m
Add resses
Ġ -----
ĠC art
set State
ĠF low
Ġs ctp
Ġp df
Ch rome
19 1
bon d
TO UCH
Ġproject s
ĠD iagnostic
ĠWh at
RE PORT
at ches
) ],
FRAME S
Add itional
scri bed
pro tect
Ġshould n
ol t
- "
RGB A
Version s
Ġs ense
Ġ6 8
Example s
M irror
"/ ></
ĠW allet
(/ \
Ġc he
Res ume
æľ Ł
ĠS ide
IT AL
y ui
é ĥ½
Ġpri mitive
or al
é¢ ĺ
M usic
Ġa ge
é Ĥ
æĺ İ
Ġs lots
* )(
ari os
v v
Pat ient
ver ity
p adapter
Ġv tk
åıĤ æķ°
Cap ability
]. [
Ġet t
. {
sh arp
PASS WORD
Ġal ter
im m
IM M
phys ical
Ġl s
ĠS R
lo ut
ĠE S
Z ONE
Ġover write
get Content
ĠSPECI ES
Ġrect angle
D a
ĠNe ither
à¸² à¸
S olution
ex change
ood le
p references
26 2
Ġsepar ated
ST AR
C X
Ġget ter
Ġc red
Ġ/ \
Ġa jax
app ers
T MP
ĠSer vices
& ,
Ġh ub
assign ed
en k
ĠRe trieve
Bl ank
é «
ĠM UST
String Utils
See k
ĠC ard
comp ression
Ġge o
66 7
ĠFile s
aw ait
w k
Ġ onto
db us
Enumer ator
Ø ©
key Code
equals IgnoreCase
defer red
s lash
m ute
re pr
ĠD ock
PEND ING
l ined
Ġ; ;
Ġorder ed
ĠE E
Ġph one
Ġn at
Ġ% .
ĠH H
ms gs
Bind ings
Ġc sr
Ġl on
Th en
util ity
G PR
vis ions
U K
s am
Ġreplace ment
p ure
me try
ĠLog in
S izes
ĠLO CK
Ġ"# {
IFI ER
MA JOR
Ġre curs
Dis covery
Num bers
Ġ// !<
Ġh al
ĠG iven
LE CTION
Date Format
ĠEX TI
CAP T
get Parameter
ìĿ ĺ
Ph ysical
Value Type
supp ly
P repare
ĠH andler
ĠG en
08 00
Ø ´
request ed
od o
ĊĠĠĠĠĠĠĠĠĠĠĠĠĠĠĠĠĠĠĠĠĠĠĠĠĠĠĠĠĠĠĠĠĠĠĠĠĠĠĠĠ ĠĠĠĠĠĠĠĠĠĠĠĠ
ĠM erge
SIGN ED
f q
T G
le et
ĠM AP
iv ing
18 9
AM D
col lapsed
atter y
FO RE
ĠCONT ENT
mp p
æ °
r fc
_ ##
Ġdis connect
print er
pred icate
p ie
au ge
Ġmark up
Ġmode s
3 50
Ġc ircle
Ġ0 4
åı £
24 4
čĊčĊ ĠĠ
Interface s
CH IP
Ġdep loyment
Ġhold ing
ĠRe p
tun nel
S y
Z IP
èİ· åıĸ
que ued
Ġ========= =
ë¡ ľ
Ġchunk s
ĠDB G
Term inal
Ġ ens
s as
get Field
A WS
Ġ@ _;
p lat
Pix map
On line
Ġs vg
ĠW H
ĠR F
acc um
Ġdi gest
icip ant
Ġn pc
mon y
e ction
to day
ĠH RESULT
c group
ir ing
ĠIn v
Ġreject ed
Ġ ata
æľ º
ĠFace book
DISABLE D
Ġda emon
Ġif def
áĢ º
REFER ENC
w char
Ġto k
unit test
3 55
åĪ Ļ
× ŀ
Ġupper case
Ġà¤ ķ
Result Set
Debug ger
Ser ialized
IP HER
ç¼ ĸ
CR M
smart y
output s
áĥ Ĳ
ifi able
= }
Ġfre ed
Ġs mb
UN LOCK
ĠDEV ICE
ĠW ill
Ġs al
($ (
Ġresource GroupName
Ġ, [
get P
Ro am
mut ation
commun ity
ag g
PARAM S
Tra de
strn cmp
ĠEx pected
= */
ĠP ATH
æ º
h ardware
c make
as er
Ġoffset of
n am
ĠHel vetica
ĠD isp
im ator
p wd
ing roup
ĠBy tes
PER IOD
field Name
Ġ" $(
md i
Event Type
Byte String
re at
Ġels if
UR AL
ĠCON ST
/ ?
RT L
ç±» åŀĭ
un re
ĠBl ue
h ind
Ġ% (
," ./
b sd
ship ping
Ġ` $
So ft
(" :
azel cast
Definition s
c xx
scal er
ĠC atalog
s low
m usic
Ġ1 60
å· ¥
TR FS
ĠH y
@ "
header link
H dd
32 9
AN GE
ĠTR ACE
Î ¯
s ynchron
Ġ0 0000
Ġ" ."
() +
S ENSOR
class v
get Child
st ation
yn omial
block ing
' .$
ĠO k
Ġop am
Qu antity
dis miss
t ur
ear ly
ä½ ĵ
Re cv
æľ į
Col lision
mail to
ĠÐ½ Ðµ
Ġbelong s
spar se
func s
return Value
ĊĠĠĠĠĠĠĠĠĠĠĠĠĠĠĠĠĠĠĠĠĠĠĠĠĠĠĠĠĠĠĠĠĠĠĠĠĠĠĠĠ ĠĠĠĠĠĠĠĠĠĠ
åĬ Ł
ni h
Wr apped
Al location
ĊĠĠĠĠ ĊĠĠĠĠĠ
z i
à¤ ¯
collection s
################################################################ ########
¸ °
CRE MENT
Ġre name
ĠC ap
Ġare n
Ġc urrency
ar a
ins ide
contains Key
n ullable
TH ON
off ice
Ġd hd
SY M
Ġqual ity
Ġq p
update s
Pixel s
č ĊĠĠĠĠĠĠĠĠĠĠĠĠĠĠĠĠĠĠĠĠ
set Visible
C orrect
Ġs prite
24 6
CF GR
). __
arb age
Ġo pp
Ġì ŀ
ĠBuffer ed
Ġspecify ing
Re view
A udit
âĢ Ķ
A cl
Ġcor rupt
t ol
domain s
17 3
Y A
W all
Ġ4 04
VARI ABLE
ĠD C
Edit able
wh o
os ity
Mon o
BIN ARY
] '
ĠP P
O ct
Ġend s
. */
"> Â¶
lic es
d printk
Ġc ategories
ĠAn not
d cc
m igrate
zer os
Work flow
get State
FIX ED
D W
ĠP ush
Ġ ER
å ķ
ĊĠĠĠĠĠĠ ĊĠĠĠ
Ġv ma
Ġhow ever
regex p
Ġpro jection
term inal
Ġcur ve
202 2
Ġlist ed
ĠMy SQL
4 80
NAM IC
ĠF ast
w heel
L azy
) ==
ĠI M
ĠM DP
Ġp en
Opt im
C li
FL USH
} )(
Ġp our
ĠR ole
Ġdr ive
W ater
Ġlook s
C ourse
ĠSt at
Ġo c
SET UP
Ġl inux
ap ic
ĠF ORM
lect ric
Color str
cal cul
Gu ard
y ml
ush ort
t icks
Ġquest ions
Ġf ault
HAND LER
le ter
Ġstop ped
st icky
(" $
IC olor
ĠĠĠĠĠĠĠĠĠĠĠĠĠĠĠĠĠĠĠĠĠĠĠĠĠĠĠĠĠĠĠĠ ĠĠĠĠĠ
ĠP repare
ĠSe quence
Ġa pt
ra id
lo pe
Ċĉĉĉĉĉ ĠĠĠĠĠ
Component Model
x fc
Ġas m
Ġ6 2
b id
ĠRun nable
un safe
ĠP S
Ġg ain
è Ī
qu id
D oxy
23 6
relax ed
ĠE OF
ç ¡
Ġconn ector
EE K
pri se
ĠG uid
Ġ led
pm u
in voice
ĠObject s
ãĤ ¢
param type
S uggest
Ġn u
Pa use
ĠM EM
Ġd ns
Full Name
I gn
z A
\_ \+
" })
$ ("#
Ġp et
b idden
ĠP RE
Ġman ip
Le ave
tre es
! ',
ĠF S
Ġun expected
28 6
sv n
distribut ion
Ġ --------
ENC Y
éĹ ®
Con cept
f z
dup licate
n op
Ġp index
Ġa met
b v
Ġv el
ab i
im ers
ot ype
V F
SCHE ME
Ġgu ide
Null Exception
imp licit
01 8
f irmware
m ixed
S pe
ĠUn known
Ġ9 7
Stream s
stand ing
Tra it
tmp l
Ġvalid ator
Ð°Ð ·
] ];
ma k
ĠE qual
U GO
Ġa e
æĪĳ ä»¬
is ions
Th umb
4 56
Ġlo ss
AB ASE
æł ¼
B alancer
Ġweb site
so ap
000000 20
er g
+ _
ra ises
s al
Pro viders
ĠR aw
ĠRe present
Descript ors
sequ ent
Ġsm art
hem atic
åı ĺ
Ġint ended
Ne ed
76 7
Package s
A jax
Ġc u
md ss
s li
64 0
let s
ĠS yn
Ġ# [
iner gi
Ġstr to
Browser Detector
ĠT erm
8 25
ĠS td
DR AM
D ST
_ |
ĠApp end
ĠOP EN
ĠFLA SH
cp umask
Ġaffili ates
aa a
Ġcome s
un bind
UT IL
range s
ĠOpen SSL
Ġh s
Ġun a
40 3
ĠP F
ven ience
ĠDesc ribe
co ins
Ġse ems
); \
Ġde velopers
} :
F acade
R aster
ĠâĢ ĵ
om b
e o
cs d
Ġw m
get File
al ter
Ġapp lies
scroll Top
ME T
GR P
Ġassert NotNull
order s
çŃ ī
; :
comp uted
TH ROW
Sk in
al location
\+ \_\+
ic ates
Ġ% #
Ġimp lode
J oint
ah oo
memp roto
. ">
Con d
IC omp
æľ Ī
è¯ ¥
c ern
memd oc
spin lock
Tr ansp
] ])
Exist ing
ç® ¡
Ġ= "
author ized
SL IM
ar ter
ĠA zure
T i
b dev
x ef
ĠQ uest
Ġtrans mit
Ġf igure
22 3
sy scall
an ches
Ġh align
Ġre moving
STOR AGE
Ġc atalog
ĠText ure
SETT INGS
å¤ Ħ
P N
h an
ĠT RAN
ĠV K
ì Ĭ
Ġexecut or
=" ,
C orre
M ajor
ä¿ ®
J ust
ãĤ ³
) $(
m td
relation ship
qu it
Wh at
CO MB
do jo
? \
Ġp referred
< '
h its
="# "><
ializ ers
ick ness
Job s
ert s
02 5
Org anization
Ġ========= ==
Ġc n
id ence
ĠM achine
åħ ¬
co ul
or b
ĠT uple
par agraph
al arm
bat im
on load
che v
@ -
B REAK
g w
F ault
c z
29 5
xB F
åĩ ½
Pro ducer
="../../../../../../ ../../
ĠIN IT
44 44
ĠField s
åĪ Ľ
OPTION AL
un a
H DD
Ġì Ŀ
Ġc losing
AN GLE
ĠDo es
y er
cy cl
Game Object
à¦ ķ
ertific ates
Implement ed
De ad
B LA
B etween
f allback
Cal lable
DR AW
Ġ1 21
ĠP OW
r ices
C MS
con tract
the ta
Document s
Interop Services
is EqualTo
"> ';
Ġ$ \
ep i
èĢ Į
b k
Ġ Keep
Init ializer
NE ED
pro x
Ġreport ed
G G
Ġ0 9
icult y
WID GET
CON D
N eeded
ad vance
Ġsk ill
Ġcla zz
lu sters
u di
Ġg fp
x cc
inter op
éĩ Į
-> __
Ġlimit s
Ch an
æĺ¯ åĲ¦
lib c
ir it
d g
lic ates
assert Same
currentTime Millis
Ġv os
Ġcon cept
TA CH
Ġrout ing
24 2
ĠCal endar
DIRECT ORY
Com mun
dep ends
æīĢ æľī
y r
Ġtra ining
SK IP
Ġ6 55
Ġm g
prob lem
ĠP l
ser ialization
Ġ8 5
Vertex Attrib
PHY S
Ġ{ -
ĠNot es
play ers
33 6
V K
28 9
+ )
); </
w ifi
ĠC T
Spec ify
Part y
Ġpri me
Un ion
ĠFI ELD
cre ation
Transaction s
Global s
Ġi st
Sec ure
çľ ĭ
W O
cont rollers
ãģ ĭ
a utom
ĠS UP
Ġsub stit
âķ Ĳ
ÑĢ Ð¾
VOL UME
En crypt
ig o
men us
ĠPro xy
" };
Ġ" =
List Item
am ili
OT AL
- \
ĠPri ority
ĠNS String
dw c
str cpy
org anization
Sp in
flat er
; ',
Ġtrans formation
//////////////////////////////////////////////////////////////// ////////////
2 14
Ġprint k
get Last
Type Error
Condition al
Qu ote
proto c
C rypto
ĠP ol
æ ®
Bin der
Ġlimit ed
line Num
({ "
/ \
Ġ ath
Â£ Â¬
it ches
q i
scale d
">Â¶ </
W iki
ĠGener ator
Re cent
Ðµ Ðº
ĠC ost
Ġad vance
case s
TI O
ĊĠĠĠĠĠĠĠĠĠĠĠĠĠĠ ĊĠĠĠĠĠĠĠĠĠĠĠĠ
ĠB ound
x en
)) ]
è½ ¬
G ood
MIX ER
? ></
Ġg ray
AA A
Ġv an
Ġg uest
32 1
Ġch rome
IS P
Ġw ater
IF ICATION
C ANCE
end ian
ĠF A
35 9
ĠB ug
d ct
cre ator
Ġcom ma
M aker
25 7
li ze
FL D
get Num
C losure
ãģ ĵ
æ± Ĥ
Ġfor k
(_ .
Ġf name
table Name
m labels
Ġq q
SR S
Ġ([ #
ç® Ĺ
P ick
Ġend block
Ġpop ulate
A x
ai ro
wik ipedia
ĠSm art
I mm
L arge
h ood
Git Hub
Ġsub mission
release s
Ġ0 00
class Frame
" ',
66 0
Document ation
Ġtool bar
02 4
17 2
ĠG T
log ged
Ġspeed test
ë¥ ¼
Ġs quare
Gener ation
be zier
execut or
Ġc as
, :
pattern s
Ġmov ing
g overn
Ġlocation s
à§ ĩ
Ġact or
C ategories
ens ive
POL ICY
Ġtra in
Ġco efficient
Ġreport s
WAR D
w av
top ics
Ġv ers
CAP S
AUTH OR
Cont inue
r ich
é Ĵ
oper ating
W F
Match ing
Ġca ption
Ġ čĊĠĠĠĠ
termin ate
ograph ic
XY Z
Ð°ÑĤ ÑĮ
Ġc group
Ġpro mpt
Persist ence
W ay
ë ¦
èĬ Ĥ
pe ople
Par sing
Ġ[ &
č ĊĠĠĠĠĠĠĠĠĠĠĠĠĠĠ
Ġcor ner
Ġcollection s
Ġc lo
ffff fff
Ġstream s
s it
Ġne g
wr apped
Ch oose
et ched
ä¸ İ
Ġjob s
ĠI W
äº ¤
Ġ}} "
5 77
cc ion
Ġch r
final ize
in p
just ified
ou ght
Ġmod ifier
sig ma
ĠGraph ics
Ġsub class
Ġ" ï
call er
ĠVis ual
j oint
ak s
ĠÃ ¤
s data
Ed ges
ĠG RO
res izable
="../ ..
åı ª
Ġre cursive
up on
/**************************************************************************** ***
Element Type
Ġof fer
Byte Buffer
f an
S UN
w cd
u de
SECON D
mock ito
SOUR CES
b ullet
c ertificate
80 6
Ġst and
du str
L F
ĠFi refox
Ġb ank
Relation ship
ÑĤ Ð¸
[' _
G I
+-+- +-+-
os ing
AX B
={ '
ĠB R
ĠThe me
ĠM ouse
REN DER
ĠDE CL
FA CT
ĠURL s
Pointer Exception
ĠIN FO
un ge
00 20
ĠRE AL
Ġf aster
im ag
ud c
Ġretrie ved
Ġde coded
ĠF ake
pre dict
close st
connection s
Ġcr ash
Ġnumer us
Ġp lt
c ite
n es
36 5
Ġrout ines
sp inner
Ġd rv
ĠRe st
çº ¿
c lipse
Associ ation
Ġdata Type
or i
); }
Ġb roken
Level s
Q P
Ġsu spend
Ġ ULONG
ĠS uper
Sp awn
ynthe tic
ile ge
inger print
AN E
num bers
Assert ion
Ġwe ak
cap abilities
ĠC ounter
ĠC riteria
ĠB PF
d rivers
Def ine
Runtime Exception
G ra
) _
Ter ms
ĠInput Stream
G RE
c orre
ut s
æ ¶
ĠEx it
]+ _
mp s
01 9
ĠP et
Clean up
Pub Key
H OT
âĢ ¦
n ob
art beat
ĠSpec ifies
art ifact
ce il
Z Z
S pring
ĠQ T
Upper Case
k in
ĠR A
T UN
Ċĉĉ ĠĠĠĠĠĠĠ
Ġ' '),
ĠInit ializes
& )
ĠC ast
dis cussion
VER B
Ġrespons ible
ĠDe veloper
m C
ĠIn d
writ able
]* _
Ġat oi
int ext
p ivot
ĠS EG
user content
30 7
Ġd olor
čĊč ĊĠĠĠĠĠĠĠĠĠĠĠĠĠĠĠĠĠĠĠ
Ġtra de
SUP PLY
n ight
ê ³
åĩ½ æķ°
n oc
ĠR C
- .
Ġ âĶ
Start Time
Ġy es
D OT
Ġde scriptors
Field Type
PF N
Ġc rc
30 5
w izard
Get Instance
De livery
O THER
Ġget attr
27 9
ĠPar am
A ir
er ms
ut ex
Ġ1 999
è¾ ĵ
A rial
tr uncate
AD AP
29 6
Ġuser Id
Ġcomplet ely
We ak
k ia
Î º
Ġ201 9
sub net
36 8
Do es
Comp ound
F s
P NG
Ñ į
ĠL ight
200 5
A verage
Ġtable Name
Qu ad
80 8
Ge om
SUS PEND
Ġsh ip
contain ers
integr ation
; '
Ġ9 8
de livery
= ['
Ġv elocity
3 10
ĠComp ile
Ġde mo
hd fs
ĠCL K
ĊĠĠĠĠĠĠĠĠĠĠ ĊĠĠĠĠĠĠĠĠĠĠ
t el
y c
Ġm ach
Ġf raction
ri st
ĠGu ide
Import s
Place holder
ĠRe moves
AC PI
play list
H EX
Ġsq rt
ĠE P
Ġd Ã©
cla use
Ġt z
INT EN
M so
con cept
ĠSTR ING
N om
time zone
Ġre lying
f lare
Qu eries
ĠProp Types
s ms
K G
get Config
Ġsp ent
entic ator
ĠDet ail
OPER ATION
Ġp w
ĠB V
") {
ĠPOW ER
Ġcomp at
æĮĩ å®ļ
Ð°Ð ¼
author ization
/* !<
Ġopen ing
ĠB r
h ig
Ġ[ :
Ġcomp ressed
Ġca uses
4 20
Ġno except
NO S
H OR
Ġrepresent ed
ĠEd ge
fd s
bra ins
ufact urer
00 10
Ġnot ifications
Hel vetica
AS N
Ġmap per
Ġ ----------
Group Layout
D iagnostic
u j
IT OR
menu item
A UD
ĠF W
Re verse
ME THO
. =
Ġg ui
Ċĉĉĉĉĉ ĠĠĠĠĠĠ
ĠArg uments
NOT IFY
Ġst e
M a
Ġn c
Ġde tailed
Ä ģ
sol ution
be havior
ĠHttp Response
F req
äº Į
M UTE
ĊĊĊĊ Ċ
form ula
Spec ification
el m
ate ver
get Width
ĠA MD
ĠExample s
× §
if a
Ġ** )
Ag gregation
ĠM ov
ĉ Ċĉ
ĠQ ual
34 9
Ġg rep
ĠCl one
G AME
Ġin dependent
Cho oser
t iny
ot s
å® ĥ
D erived
Ġre strict
C ATEGORY
IG NORE
ud ents
qu ential
Ġg db
Port s
wo od
home page
x cb
Û ģ
Ġlo ff
Ġ( ~
f la
ĠS RC
y outube
], [
* ="
ĠNE W
Ġ× Ķ
quip ment
ĠIllegal StateException
get Y
Ġc ubic
Ċĉĉĉ Ċĉ
ãĥ Ĺ
Ġ8 8
Ġo u
E MAIL
AD V
Ġapp s
R ename
Loc ations
ĠC apture
l ru
áĥ ĺ
Th ing
ĠH AS
="../.. ">
re no
ST AND
h m
counter s
Ġ6 7
get Object
lat ing
Block Index
Check box
spell Info
track ing
sp here
******** ****
] ].
up pet
Ġactiv ate
Ġvol tage
æ ·
Ġh over
27 5
qui et
Ġcap abilities
al go
MO UNT
SM C
Ġ0 7
lat ency
pre tt
Ġe ver
ed i
effect s
QU IR
E VT
DA I
... ");
Pa inter
ame s
ĠR ob
000000 7
int ent
as io
vision ing
r pm
dis sect
ump tion
ence s
pri mitive
A ware
R SA
b trfs
ĊĠĠĠ ĊĠĠ
Per formed
sc m
Î ³
P PC
greg ator
æĶ ¯
Ġart ifact
Ġx y
80 9
aut orest
izz le
Mov ement
Ġ1 11
ĠP arent
Ġty p
ĠAt tributes
Ġleg end
exp licit
CHANGE D
è ģ
ET TER
Ġg ap
Bus iness
é¡ ¹
Install ation
ut ing
Å Ľ
Integr ation
ED GE
M ass
r ng
Ġar ithmetic
Off sets
Short cut
Ca use
ich ael
Int Ptr
order ing
Start up
Ġorder ing
V endor
Index ed
chev ron
H our
l ut
CC R
Ġk gsl
(' [
33 5
le ad
Ġlog o
c amp
Ġ& _
Buffer Size
V i
re veal
#### ##
Ġsec ure
st reet
cl r
RE SERVED
O Auth
Ġen crypt
17 1
å± ŀ
å ¢
Ġx fs
Ġutil ity
l lu
fe at
ĠVER SION
(' ');
Ġac cessed
BO SE
Ġinv ocation
2 0000000
I lluminate
Ġ1 25
Ġ{? }
Ġ(! _
04 6
Ġu v
ĊĠĠĠĠĠĠĠĠ ĊĠĠĠĠĠĠĠĠ
ĠE mit
ĠT i
child Nodes
UB E
Ġj q
LIBR ARY
ĊĠĠĠĠ ĊĊĠĠĠĠ
ĠM ozilla
× ĳ
add resses
ĠRect angle
inst alled
B ootstrap
Ã Ł
RE ST
Ġ(( *
Ġrow span
35 7
Ġ202 0
IP C
distribut ed
Ġbind ings
Real m
Ġquot a
y ield
q emu
} >
exp ire
Dep loy
tx n
ib us
Ä Ľ
auto complete
ĠIn dic
ĠQ List
Ĥ ¨
ion ic
Ġm igration
ĠEvent s
m desc
sp ort
col One
an onymous
c andidate
ser ved
Rep resentation
Ġ> ::
Ġf atal
di ent
Ġfeed back
Ġes lint
ç« ¯
ĠVis it
W W
dim ensions
Change Listener
um l
S OR
r k
IR UGO
ĠIO RESOURCE
D on
et t
80 5
Second ary
E K
Ġsign als
Ġf ine
ĠOper ator
mp l
Ġinte gers
ĠR B
Ġtest ed
ĠS ch
pm c
Ġsc aling
Ġplace d
18 2
Ġlanguage s
Ġalloc ator
é« ĺ
Mark up
ĠGe o
var char
æŀ Ħ
Ġget Value
æĢ ģ
qu ared
her o
ĠV ertex
26 8
æĮ ģ
F riend
co ff
ĠUP DATE
GR APH
äº Ľ
RE LOC
Gre ater
ĠTime out
ĠB its
Ġpro of
ĠDesc ript
re cipient
data Type
à¦ ¤
Extract or
ĠS un
Ø§ Øª
mm u
mit ives
ĠSer ializable
t utorial
get Next
al ty
8 001
V tbl
unt il
Watch er
Ġk o
bus iness
Se ed
č ĊĠĠĠĠĠĠĠĠĠĠĠĠĠĠĠĠĠĠĠĠĠ
lips is
ivers al
block ed
ĠBit coin
] |
re nt
è½ ½
L AT
Ġhig hest
Un do
Icon s
Ġg t
ĠQ Variant
d z
xF C
Account s
L R
X F
OT G
H its
c err
7 20
ëĭ Īëĭ¤
g am
u li
Ġexecut ing
d ss
ĠB B
ag s
RE GE
rom a
Ġf loor
Ġ\ '
++ );
Ġrole s
ç» Ł
40 6
subNav List
gener ation
h ba
=" %
View Controller
laps ible
. ;
v x
Al bum
re covery
Ġb ench
Image Transform
lat in
band width
0 55
B RO
Ġte gra
work ing
Ġdig it
Ġcomp any
C redit
Call ing
RO UND
æĹ¶ éĹ´
Fix tures
} [
Ġvir Domain
å ĭ
Off ice
Ġcover ed
bin der
Ġgr ad
ĠS I
n ave
Ġex panded
Ġlo t
EM U
Ġtrack ing
de claration
Ġs v
rt w
arg o
PH ONY
f use
Ġb ridge
Ġw ide
quest ions
33 9
not ifications
Ġbecome s
dl g
66 00
it an
inf ra
Vert ices
Ġs nap
ĠD ET
class List
åĲ ĳ
May be
reg ions
Ste ps
ab l
Ġs itu
strict Equal
Ġclip board
} */
ĊĠĠĠĠĠĠĠĠĠĠĠĠĠĠĠĠ ĊĠĠĠĠĠĠĠĠĠĠĠĠĠĠĠĠ
čĊĉĉĉ čĊĉĉ
> ]</
P x
Ġw a
ot ing
Ġcom bined
Ex clude
Ġpro duction
CON TAINER
float ing
Ġm utable
Ġ0 6
Re start
c wd
Ġ1 92
GENER IC
Ġthere fore
pc ie
contrib s
Ġreason s
k p
inter sect
EDIT OR
Ġdis card
ĠA IR
user data
Non null
M icro
WN D
)* (
PO OL
Ġshort cut
& );
D ark
Ġenumer able
il on
ĠCO DE
ĠGit Hub
get First
get Height
B roker
S UR
fin der
ĠS AY
DE TAIL
Ġrun ner
ist ant
Object Meta
Ġ1 15
Access ible
29 4
Ú Ĩ
m igration
U id
D G
Ġch ance
AD M
Effect s
Ġas pect
æ² ¡
R ay
ere o
O gre
wait ing
render ing
ĠSc roll
h ore
ĠA ES
Ġver ification
L ua
g an
h ive
ĠE FI
ĠR et
H dr
ĠDown load
f ort
SR V
ten ant
Ġschedule d
Config s
Ad vanced
Ġpot ential
jet brains
R a
L TE
å¯ Ĩ
xb f
Ġtr unc
Ø Ń
36 9
Log o
Table Model
x fd
semb le
Ġlock s
inu ation
ĠL ETTER
Qu ant
P as
æĦ ı
ul y
Qu ota
Ġcontain ers
à ¬
REFER ENCE
_ ),
Ġposs ibly
store d
session s
Ð¾Ð» ÑĮ
Ad s
Ġin variant
Context Menu
Ġcons istent
Ġgener ates
S aved
ĠPh one
80 7
ĠCOL OR
interop Require
æĥ ħ
s andbox
\" \
T urn
G FP
per l
FIL ENAME
Ġcan onical
ĠF P
Ġstr cmp
24 3
? ,
g uint
å¼ ķ
eca use
Ġblock ing
User Name
0000000 8
il ine
Main Window
ç© º
Ġ{ });
D ash
ĠO bj
ĠCom mun
32 3
}) ();
ĠExecut ion
embed ded
Ġh ierarchy
Ġ// #
S py
X MM
H ours
ä¹ ī
CONST ANT
ĠĠĠĠĠĠĠĠĠĠĠĠĠĠĠĠĠĠĠĠĠĠĠĠĠĠĠĠĠĠĠĠ ĠĠĠĠĠĠĠĠ
à¥ Ģ
AS ON
Ġg ra
Ġdis c
Dr upal
Ñ ĺ
Call s
X C
Ø§ ÛĮ
çī Ī
() (
ĊĊĉ Ċ
ĠĠĠĠĠĠĠĠĠĠĠĠĠĠĠĠĠĠĠĠĠĠĠĠĠĠĠĠĠĠĠĠ ĠĠĠĠĠĠĠ
ĠDe velopment
player bot
ap d
sh ard
str a
be acon
pect rum
ĠName space
<! [
ĠTool s
age s
R sp
G ed
le ader
ĠH istory
An alytics
åĿ Ģ
ĠF uture
ãĤ Ĭ
ĠHE ADER
status Code
M ongo
sub dev
Ġ çļĦ
I Q
Ġse ss
ĠP G
dis card
Ġ3 60
V oice
an i
Ġre member
Start ing
ĊĠĠĠĠĠĠĠĠĠĠĠĠĠĠĠĠĠĠĠĠ ĊĠĠĠĠĠĠĠĠĠĠĠĠĠĠĠĠĠĠĠ
Ġsp awn
PAR M
ĠV T
VIS IBLE
Seg ments
Ġ( []
at ts
ä» »
SM ALL
AS C
18 3
FR ONT
Ġof ten
con version
AD ATA
ok ed
48 5
ĠN PC
ĠXC VR
Ġ( ++
Leg end
ac quire
=' "
ĠComp any
ĠG N
18 43
prec ation
ä» İ
ĠSer ial
Ġgu ard
A st
G ATE
åĨ Ļ
ALI AS
Ġdepend ent
ense d
íķ ľ
el d
Set Value
im mediate
add Widget
2 0000
C andidate
get Bytes
u ches
Ġ" :"
ac cent
xf b
ol id
bl end
cook ies
Ġnorm ally
date s
æł ·
Gest ure
B N
I ER
I QUE
re aded
' });
top ology
Ġany way
Ġ* ****
Ġmon o
Ġintegr ation
Mso Normal
60 8
bootstrap cdn
check out
ĠB C
In strument
ĠF etch
ĠI PC
ar x
Bl end
Ġnumber Of
Ġpro tect
Ġg fc
ĠQString Literal
Ù ĥ
Ġss h
# [
set Color
ĠM L
J OB
P iece
Ġe i
ĠH OST
index es
G ST
Express ions
Ġd ropped
The lia
ãĥ ī
A m
ĠL ib
debug fs
ams ung
Ñģ Ñı
Script s
Ġe e
ĠPer form
celer ator
cs r
ĠUnsupported OperationException
me th
op aque
PL US
Ġenumer ate
é ķ
Ġv irt
Hash Code
ĠTra ce
ĠJan uary
4 02
En dian
Ġwant s
ĠAuth entication
Ġins pect
ysq li
OK IE
Comp uted
Ġbus y
ĠN aN
W IP
oo thing
Ġ ĊĊ
get Source
da emon
Ġtest Get
sk i
de on
Ġde clarations
map hore
P DU
p st
Log s
B W
Out er
STRU CTOR
40 8
CLU DED
åĪĽ å»º
contact s
DO CUMENT
Ġtre at
-- ">
get Size
ĠDE LETE
Ġreal m
Un less
04 7
get Local
Se par
UT ION
F IND
y tes
RO T
DI M
St a
Re sp
Ġ8 7
OP S
ĠB L
Ġcle ared
ĠP os
ĠY ii
ÑĢ Ñĥ
` ),
raw ler
Ġval s
warning s
ÑĢ Ð°
IN UE
J IT
Count s
ĠG UID
resource GroupName
W heel
Co ordinates
f sm
IN CREMENT
ag gregate
Ġend points
48 4
Rep lication
Ġb as
ĠĠĠĠĠĠĠĠĠĠĠĠĠĠĠĠĠĠĠĠĠĠĠĠĠĠĠĠĠĠĠĠĠĠĠĠĠĠĠĠĠĠĠĠĠĠĠĠĠĠĠĠĠĠĠĠĠĠĠĠĠĠĠĠ ĠĠĠĠĠĠĠĠĠĠ
Ġst udent
Ġis olate
m aven
st p
ad itional
Ġformat ting
Ġd iagnostic
ĠImplement ation
ĠS TY
2 99
Ġc tl
dig its
Ġcombin ation
} ));
Ġconfig urable
xxxx xxxx
W arn
Ġst a
88 5
01 01
ĠIN PUT
ĠâĢ ľ
Ġmaint ain
A rena
ĠQ Object
get Request
Ġeffect s
ĠBit map
j m
Ð¾Ð ¶
Ġskip ped
//////////////////////////////////////////////////////////////// ////////////////
å® Į
Ġcho ices
Com bine
R uby
nd o
\" ",
ĠM ail
De clar
H ere
m atic
Ġ à®
ic ol
SEL F
ĠDec imal
B oost
Ġi mm
Ġrespon d
SH OT
éģ ¸
Ð¾Ð ¹
æ¯ Ķ
REQUI RED
W U
ĠF AIL
Ġstart Time
LO PT
40 5
38 9
æĹ ł
Ġs ibling
Ġac compan
Fore ground
d fs
CH G
bu kkit
ĠL GPL
per formance
37 6
ĠF uel
M ER
P al
Ġreg ions
A IF
te gra
ordin ator
Ġp icture
ĠC idade
Con current
A utom
âķĲ âķĲ
ab a
åİ ¿
De ferred
=" .
As pect
Par sed
POL L
å® ī
Ġappear s
ber g
tt l
Ġ` --
Q UEST
n ut
cycl er
u char
start up
do or
ĠF B
C ipher
Get Current
EX IST
> ().
->{ $
Ġv id
Ġ6 9
Ġexp onent
W izard
Ġread l
Ġal c
FF IX
L ab
enc ing
ĠP olicy
Set ter
Ã© e
ĠW RF
ens it
ĠD SI
ĠE numer
a hd
è ¶
sp ath
em f
DX ImageTransform
X HR
ĠF ire
SYSC ALL
Ġp data
Ġs id
comp atibility
Ġformat ter
Token izer
Ġassume d
f u
Ġt ot
ĠPython Qt
Ġs ends
ĠO ct
FORM ATION
ut c
string stream
Ġsh ard
g row
ĠD W
TE M
Ġgo al
Ġ ../../
34 6
ĊĊ ĊĠĠĠĠĠĠĠĠĠĠĠ
à¤ ¸
ĠTest Case
Ġme chanism
ĠTime stamp
Ġb c
system s
By Key
MENT S
2 66
an on
ans i
al ternate
xF D
Ġmedi um
B oot
marsh aller
H IST
ĊĠĠĠĠĠĠĠĠĠĠĠĠĠĠĠĠ ĊĠĠĠĠĠĠĠĠĠĠĠ
AND ROID
Table HeadingColor
ĠRE ST
V m
) "><
Model Index
s fr
c ra
do i
ĠIn struction
Ord inal
Ġin str
Ġpersist ent
on ic
28 5
77 8
7 07
000000 10
g ather
é» ĺ
Ġhe alth
ĠY A
4 0000000
200 3
T ail
Y NOS
de serialize
New s
inst ant
Ġsub net
Ċ ĊĠĠĠĠĊĠĠĠ
move To
cur se
BO UND
ĠAPI s
IMP ORT
comp osite
C Sharp
ĠS MB
Ġre peated
we apon
SW AP
iv al
ÏĦ Î¿
Ġun do
Int ro
Ġtensor flow
Ġit alic
at an
01 234
Ġaccess or
PT S
ĠP oly
Ġaccept s
B AS
d ra
;; )
b ib
ĠS plit
6 36
IM AL
ad vert
H ref
ar ches
MM U
Print ln
A w
append To
book mark
fix tures
ĠGRO UP
18 1
Ġpart y
R SP
g ender
Ġ18 60
p ressed
Ġ[ $
Ġf open
ĠP PC
Ġ?> ">
pet ition
Ð ļ
ĠUs ers
E m
ç Ĭ
RUN NING
Ġnot ifier
Un marshal
\\ \\
Co lours
Ġpa use
sc ue
Ð°Ð ¿
ĠED IT
f ancy
M oney
Ġ* .
ĠT ile
T un
op c
Ġoper ators
Tool Tip
ĠĠ ĊĠĠĠ
fil p
MUT EX
'] .'
ĠNe ed
v bool
un expected
Inter ceptor
is or
ft ime
SLA VE
ĠS can
err er
EN A
AL G
// -->
Ġ{ :
ared Statement
Aut ow
st ory
p ublisher
ĠEvent Args
ĠN K
Ġpe ers
ĠA ug
æº Ĳ
set On
ĠH F
æľį åĬ¡
O UR
Ġcol l
Ġdelay ed
åİ Ł
b am
f ps
Ġt a
ENT ITY
pe m
R ad
gr ab
Ġdraw ing
ĠSY SC
W B
Pro be
) ])
r h
Ã ľ
"> "
Field Name
Ġauthor ization
g al
w sgi
trans itional
l h
x o
ĠG CC
gin x
<< "
P OP
in ria
s ar
len ium
Ġuint ptr
ac cel
Ġoverride s
Ġb ulk
Ġimplement ations
200 4
Gu ide
n umpy
can onical
lu id
du c
Ġc art
St ation
Ġ` <
Ġdetermin ed
j xr
Check sum
conf lict
ĠSp ace
zon es
ĠS y
T cp
ĠSc reen
Ġcon tract
Ġlp fc
C rypt
ĠP OL
Ġcon ver
lp fc
Ġ ../../../../
27 8
trigger ed
lat ex
it i
Cover age
al formed
E CHO
L SB
S ingleton
ĠL iteral
s se
"> {
chunk s
Ġ) (
,, ,
Ú º
} -
Ġcalcul ation
ĠC I
Ġsol ver
Ġpoly gon
Ġ{ &
s ense
Block ing
å¸ Ĥ
hes is
="' .$
bu ddy
ĠBig Decimal
çĦ ¶
Ġ8 4
ternat ively
Ġ1 30
Ġcould n
j dbc
ĠS ys
um a
SS H
ep s
AP PLICATION
Contain ers
ĠL AT
æĺ ¾
I STR
j mp
> |
In variant
04 4
sort able
Ġa udit
Re cipient
ĠM ET
) "));
Sub scriber
sm tp
Y ES
ms r
Ser vers
Ġv c
nd x
ĠLoc ale
ĠM ENU
=' $
PL URAL
posit ive
Th umbnail
Can onical
ĠLine ar
Ġd ark
ĠP air
Ġ ÑĦ
ot ed
ä»£ çłģ
ĠH ID
dispatch er
X R
celer ation
feature d
ĠCOMM AND
con tribut
M aint
Ġa pr
O ffer
Ġ` /
Ġfore ign
Ġre use
S at
Ġassert ion
Man age
Ġre dis
Ġra deon
h pl
ĠNV IC
å ł
Ġar c
h ls
activ ation
use c
( **
m ce
Ġg ateway
init ializer
") [
DC ALL
ATT ACK
am er
os d
ĠO Auth
Î ®
HD MI
ä¼ ł
t ier
Ġin verse
cer pt
ĠJ av
ĠPro gress
word press
m time
Ġm otion
Ġ10 5
AV A
SN AP
Ġtr an
Pro vide
56 7
DEP DIR
b etween
do ctype
ins pect
ĠRe ceive
P rom
P referred
get Mock
Un ix
ãĥ ¡
56 5
2 19
col lision
UL ATOR
([ ^
Ġwrit able
ĠComp lete
Ġo m
int Value
ĠIN ST
Form ats
h dd
Ġp al
ĠLE FT
CRY P
ĠLOG GER
ĠI T
comp oser
apt ics
ĠFRAME S
lu de
cloud flare
åŃ ¦
Ġ energy
Last Error
C sr
invalid ate
Ġ ÑģÑĤ
new Instance
ä¸ ī
28 4
Ġd ire
S ong
get Max
MI SSION
Sign ed
éĶ Ļ
O TE
Spec ified
ab er
Al arm
Ġra ce
Q gs
Ġre covery
fi ed
Ġso on
Ġmin ute
Ġ'- '
Ġsub set
čĊĉ Ġ
ec c
55 0
è¿Ļ ä¸ª
Å ¼
PROG RESS
à¸ Ń
G H
get text
ĠA U
file Path
ĠTrans fer
ic i
34 7
C pu
Ġorg an
ul us
6 25
render ed
breadcrumb s
h ill
mon o
v iz
is i
ab bit
ÑĢ Ð¾Ð²
C ED
IsNull OrEmpty
d ana
ss f
Class Loader
ä¹ Ī
datab ind
J ump
dd r
ê ¸°
ĠEN GINE
ĠDock er
pro files
CR IT
Register ed
Call er
Ġ' =
AG AIN
åĽ ł
) %
Ġun supported
B ulk
P USH
DIF Y
ë ĵ
ì ĭ
find ViewById
Ġover ridden
Ġ(* .
Dr ive
ĠString Utils
reg isters
In c
open ed
Ġpol ling
Play ers
Ġ[ <
ER E
AVAILAB LE
Ġt iny
ar th
qu iz
S parse
Ġp la
um ing
r vm
al so
ĊĠĠĠĠĠĠĠĠĠĠĠĠĠĠĠĠ ĊĠĠĠĠĠĠĠĠĠĠĠĠĠĠĠĠĠĠĠ
path name
Ġpartic ip
slide s
L GPL
Bag Constraints
L uc
RE MOTE
no kia
Http Response
Mov ie
é»ĺ è®¤
adi ans
ear Down
ê° Ģ
IComp onent
Ġw c
sol ver
ìĦ ľ
); "
ĠDET AIL
check s
c ule
PRO T
w y
Ġ} ]
Ġ' ,'
" (
we ather
Ġdestroy ed
Ġpercent age
0000 1
ENO ENT
ĠC annot
de velopment
35 8
x be
Ġe ax
è¯ ´
ĠD ummy
PREC ATED
ad ap
40 9
LIB S
é ł
Ġ" ../../
Ġwhen ever
ãĤ ¿
ren ch
R ULE
md c
info s
Gr ant
Ġc g
Qt Core
DY NAMIC
33 4
ĠA lg
ĠP T
Ġun e
Te X
sp acer
Inter preter
handle s
sys ctl
J B
Ġcheck point
Ġbin der
do ck
ĠName d
WAY S
) ');
c ab
Ġover lap
tw ig
im o
R FC
ĠR UN
Ġgraph ics
Ġannot ations
33 8
y an
IF S
Ġph i
Ġto do
ĠDescript or
i ostream
add Child
cd c
IZ ATION
)) ),
ĠG F
ĠSYS CTL
prett ify
DB us
29 7
Ġin cre
ĠP E
sc i
a ur
ke eper
ive c
Token Type
Order ed
Track s
N orm
lf t
Ġplay ers
z render
us hed
HttpServlet Request
COD ING
ĠNew Page
Ċĉ ĠĠĠĠĠĠĠĠĠĠĠĠĠĠĠĠĠĠĠ
pop ulate
b cm
g boolean
h ort
Ġ Ke
ĠT wo
J K
Ġag gregate
BAN K
or ry
ĠM icro
Ġappro x
VID C
ĠCh at
à¸ Ļ
aver age
ibr aries
end ant
Object Name
Ġ7 7
Ġassoci ation
Ġre loc
Ġhost s
ĠAl ways
Ġip sum
CANCE L
S ynchron
par er
ĠO ld
ĠW A
Handle TypeDef
sc hemas
ĠCont ains
ĠNot ify
Ġc oin
Ġs at
(' ',
çĶ ±
C ritical
Ġ" ).
34 4
37 4
Ġ0 5
ãģĹãģ ¦
é ĵ
Ġfilter ing
Web Kit
Ġplace s
om as
s en
Ġm it
ĉĉ Ċĉ
Ġp reserve
Ġv ehicle
Ġindic ator
Ġtw ice
Ð¸ÑĤ ÑĮ
ĊĊ ĊĠĠĠĠĠ
Ġst ation
ĠB undle
Ġdir name
x ed
J OIN
To Int
Ġcal lable
Leg acy
G CC
Acc um
C IPHER
n itude
į ä½ľ
lear ning
Ġt icks
ĠDistribut ed
) **
ĠP IO
char Code
Ġ7 8
Ġ7 9
Ġeas ily
ĠU rl
Ġol der
ĠIndic ates
Autow ired
ãĥ ķãĤ
cdn js
Ġ áĢ
Ġi OS
ĠI G
on o
Ġp ure
chn ique
er gy
ĠL ow
sph inx
i OS
ĠAct iv
c in
ĠIss ue
( ::
Ġt ar
loc ator
Ged mo
co lour
ĠP ipe
Ġw ave
EE P
dep loyment
gr ant
Ġenv iron
ĠN U
get Status
à¦ ²
lo re
Ä Ł
Ġan onymous
ced ence
Ġ7 6
ap pearance
set Data
ac ute
ĠL ife
no ther
vm x
Ġb asis
Ġre ach
Ġg row
Trans lator
in cluding
Number Format
p j
S IL
Ġl b
yn os
ĠSc hedule
B ROW
ĠG PU
= <
Ġr id
27 4
end o
Ġtemp or
P red
te k
Test er
Ġf ired
ĠChange s
MAT RIX
Ġp te
FI ED
s md
fra ction
Ġê °
ãĥ ¬
44 6
yy v
Ġplatform s
Ġ ........
Ġp n
ĠMessage s
UST ER
ĠDet ermin
is abs
Ġ8 00
Ġhas attr
Ġb n
Time line
Ð¾Ð ·
NE G
tr x
Ġo d
ĠL AN
Ġs parse
pri me
if r
mov ie
ĠCon f
Ġbuffer ed
x z
S coped
li me
4 22
Ġat tempts
IS ION
Condition s
Ġth umbnail
ĠOper and
AX IS
Ġ" ^
Ġclick ed
Ġp seudo
Ġstr cpy
, [
ic om
40 7
to UpperCase
D ll
skip Nav
Ø ®
ĠA CT
En s
Ġtemp erature
as pect
ĠG P
var iance
ĠMay be
W ARE
ĊĠĠĠĠĠĠĠĠĠĠĠĠĠĠĠĠĠĠĠĠĠĠĠĠĠĠĠĠĠĠĠĠĠĠĠĠĠĠĠĠ ĠĠĠĠĠĠĠĠĠĠĠĠĠ
Place ment
çī ¹
gest ure
H ar
Ġch osen
fix up
ĠS DIO
rc mf
s coped
Ġ8 2
v ect
ç´ ¢
j k
ĠDES CRIPT
0000 01
Run nable
get Selected
ĠN ov
Ph p
åĵ ģ
ten ded
y o
match ing
ĠBind ing
Ġorg anization
CE LL
Ġi NdEx
ï¼ ģ
format ted
in active
document Element
Ġsign ificant
éĢ ģ
k le
lat er
O GLE
on a
Ġkey words
Ġty ped
wik imedia
L ambda
la h
nav igator
ĠF IL
Re gs
Re maining
In form
ar gest
Ġme mo
b ian
Action Event
u ario
Comp ression
rs a
D UP
ĠAl ert
Ġsort ing
Ġ7 4
train ing
Ġcommun ication
čĊč Ċĉĉĉĉ
sub scriptions
Percent age
ĠD om
Ġres olver
' %
g host
Ġs ix
Mod ifiers
US AGE
Ġvis bl
ra ils
Ġ\ $
ĊĊĉ ĠĠĠĠĠ
Ċĉ ĊĉĊ
Ġque ued
interopRequire Default
Mock ito
k ube
ak a
Ġc sv
get Table
pos ure
Â¡ @
× ¢
Ġin vol
PR IMARY
ĠREQ UI
Ġdoc utils
02 8
ĠL IN
RE CTION
Decor ator
ĊĊ ĊĠĠ
assert Is
Ġsub sequent
=\ ""
Re ject
Ġx hci
å¿ ħ
T s
ĊĠĠĠĠ ĉĉ
Ġm igrations
Iter able
member Of
CAM ERA
E OL
ĠE ffect
ĠASC II
ul ative
are na
off s
Ġs oc
ĠT urn
( ("%
h alt
ĠH at
free ze
ĠF ound
ĠĠĠĠĠĠĠĠĠĠĠĠĠĠĠĠĠĠĠĠĠĠĠĠĠĠĠĠĠĠĠĠ ĠĠĠĠĠĠĠĠĠ
number Of
ĠCom Visible
Ġiter ations
Ġ Ñĩ
Ġt bl
Sem antic
Ð ĺ
Ġde velo
Ġis o
à¤ ®
f at
ĠUpdate s
poly gon
SCHE MA
T oo
de e
Ġp iece
g iven
ĠD iv
AC COUNT
"> //
arg ing
ĠF lash
Ġun d
ĠRE L
P W
ĠC D
ì§ Ģ
ĠĠĠĠĠĠĠĠĠĠĠĠĠĠĠĠĠĠĠĠĠĠĠĠĠĠĠĠĠĠĠĠĠĠĠĠĠĠĠĠĠĠĠĠĠĠĠĠĠĠĠĠĠĠĠĠĠĠĠĠĠĠĠĠ ĠĠĠĠĠĠĠĠ
Ġle arn
D ie
Ġal ternative
REFERENC ES
remove Child
t ro
is r
co ordinates
e very
ĠEX IT
Ġ0 000
B OTTOM
ag o
ĠNav igation
N r
al d
Ġs aving
Ġio ctl
[: ,
C atch
re striction
Ġt enant
Ġindex ed
sub type
Ċĉĉĉĉĉĉĉĉĉĉĉĉĉĉĉĉĉĉ ĉĉ
Min utes
Ġread able
Th rough
BACK END
è· ¯
al ready
Ġa z
Ġpro tection
Ġper ipheral
Ġ( ),
sp s
Ġi ata
}} "
f ers
Key Event
F lex
sign als
_ <
s ctp
set Layout
OR LD
24 1
as i
ĠM aterial
35 4
ĠH AND
TL V
in herits
Ġe ff
trins ic
Ġ= ================
ak ed
å¥ ½
DO C
)) ->
3 88
Ġ6 1
w off
PARE NT
Ġident ical
ighb ors
ĠM o
ĠPRO P
čĊč ĊĠĠĠĠĠĠĠĠĠĠĠĠĠĠĠĠĠĠĠĠĠĠĠĠĠĠĠĠĠĠĠ
s ong
Dat um
éĢļ è¿ĩ
' ");
Ġpar agraph
ĠAdd itional
TER M
trans mit
off line
ĠAIR PORTS
/ -
Hand ling
ĠP ID
ĠW LC
ps y
è¯ ķ
n and
ri o
ĠD L
ĠF C
Ġpro pag
Ġget All
RO LE
ĊĠĠĠĠĊĠĠĠĠ ĊĠĠĠĠĠ
æ® µ
work queue
0 50
UN SIGNED
Ġwidget s
L ATE
ĠSe gment
HEL P
E ff
TO S
Ġbase line
ĠByte Array
60 9
Un signed
---------------------------------------------------------------- ------
APP LE
PL UG
Group Id
Rout es
cast le
Property Name
c ube
ĠAn imation
E BUSY
default Value
Ġbefore Each
Ċĉĉ Ċĉĉ
ĠM ED
("% -
AMP LE
Activ ation
Ġg amma
de m
id ers
ç§ į
Ġw char
j am
Ġp lug
ĠL ua
Pro filer
sh m
(" --
sel ves
is In
effect ive
ãĢĤ <
M OT
ca iro
Ġt iming
ĠR outer
J ar
at tempt
ere g
cor p
Ar n
Ġsy scall
rav ity
tx q
Ġali ases
29 8
.$ $
t if
B ss
H X
av el
op p
27 6
ARE A
ax i
pre processor
w so
Ġt g
position s
writ ing
BL UE
ĠMon o
ĠPackage s
class name
' )))
CT R
000 3
ĠB lob
Check s
vid ing
à¹ Ī
ĠM age
áĢ ¸
Un grouped
PH ASE
à¤ ²
Ġmapping s
Ġ čĊĠ
: ");
at i
P oll
ist a
Tx t
Ġqual ified
d j
o ffer
z n
ĠComp iler
Ġcap ability
y ond
ce ipt
Ġget Default
Ġqueue s
Ġtrack s
C ENT
or ith
] []
()) ->
port let
Ġde limiter
Ġjust ify
ĠWord Press
b nx
T LE
Ġh uman
to o
Ġcomp act
C aster
Ġcom bo
ĠX ED
Ġintern ally
N AND
v y
flat ten
MAN AGER
AL E
ĠDet ails
G iven
Ġl and
start Time
S iS
//---------------------------------------------------------------- -------------
Ġl c
éĻ Ĳ
ĠSm all
Ġrc u
u y
to w
ĠS IL
SI Z
ma ker
CH P
Or Default
Activ ate
Ġn ib
ĠP ersist
SP R
Prec ision
Check point
ĠOV ERRIDE
t alk
æ ´
)) ));
S nap
ĠĠĠĠĠĠĠĠĠĠĠĠĠĠĠĠĠĠĠĠĠĠĠĠĠĠĠĠĠĠĠĠ ĠĠĠĠĠĠĠĠĠĠĠĠĠ
Hist ogram
multip ly
Ġcheck box
ĠS elf
C riterion
CH AIN
ar f
Ġb link
Namespace s
' >&
x ac
Wh ile
Ġbu iltin
ĠSTD METHO
ff d
SCO PE
Ġac quire
S OL
S quare
f ops
new Value
Ġel it
Ī ĺ
Hy per
Ġk malloc
ĠOn ce
M IPS
Ġyear s
Ġ( ));
() ];
Ġph ys
Ã ¾
ag rant
_ *
38 7
asm ine
ĠM aster
PRINT F
and er
Ġ7 00
ASY NC
B CM
p Adapter
m h
p iece
Ġst ar
\\ .
layout s
Ġ1 12
set Id
000000 1
Tool Bar
jsp x
ĊĠĠĠĠĊĠĠĠĠ ĊĠĠĠĠĊĠĠĠĠ
Ġgr ab
Ġregard less
ĠAtt ach
Book mark
× Ĺ
ob js
ov y
Ġsequence s
PAN EL
par ms
Qual ifier
g v
ĠRe gex
ĠA ngular
lang s
è ī
TR IES
th resh
math comp
Ġ ĉĉĉ
ãĥ Ń
Ġmov es
ĠQ COMPARE
Wait For
Mode s
B o
D DR
ĠC he
Un ary
ĠA ura
Ġt il
Ġab ility
ram mar
PE T
book s
col bert
no v
åº ĵ
ĠROW SPAN
Ġc ancellationToken
ph en
Ġca used
co ef
Ġp itch
avai lability
Ġn n
Ġ|| =
(! (
Ð Ķ
æī §
3 99
3 66
Ġlocal s
short code
End points
b oun
Tex Coord
ĠW ORK
Ġe lapsed
Ġp j
Ġcover age
ĠAlg orith
6 86
åŁ º
In voice
ub untu
set Timeout
]( /
Ġprint er
ĠF D
pl ural
se ud
Ġres ol
ĠÐ¿ Ð¾
be am
37 0
ĠDES C
æ¶ Ī
pro f
in ym
Ġh id
ep l
. "),
ĠP AT
Ġno ise
ĠLook up
ac s
VIR T
ĠE clipse
60 7
Trans formation
can f
c losure
Ġwork flow
n est
ĠI C
ĠString Buffer
get Date
Ġpro gid
s alt
ĠS cope
ĠC SR
Ġparent s
SU FFIX
ĠD RM
af l
çŃ ¾
S ans
J ax
q b
Ġa mp
j an
ĠT ITLE
Up dater
E valuation
PRO XY
SS IP
it ution
Ġsu itable
v ince
li able
=-=-=-=- =-=-=-=-
Ġs vc
ver batim
ĠSc ene
s co
ĠIn tegr
ĠD one
26 7
3 17
75 7
con c
Ġi wl
Re load
ab ric
Ġget Class
LOG IN
Ġob servable
ĠS ci
No Error
full comment
ĠImmutable List
Ġstr n
J an
ĠCh art
čĊĠĠ čĊĠ
FIX UP
à¤ ª
s af
03 9
ĠComp lex
The se
Pro cedure
ç´ ł
fa q
Ġf lip
Ġto po
top Nav
ĠK ernel
Ġpas ses
comp osition
re main
ing ular
Ġre cover
å¤ ĸ
hu ge
ĠEL SE
B SS
CS V
Ġan t
S ITE
Ġpan e
32 2
cv t
O MAP
r ub
COMM IT
Ð¸ Ð¼
Ġcontrol led
× ł
Schedule d
P SE
04 5
Per formance
Ġscale d
ĠQ Widget
au ssian
å±ŀ æĢ§
Ġde liver
el le
________________ ________________
Marsh aller
ĠCon verts
Track Colours
éĽ Ĩ
start ing
O X
c ampaign
c il
s cores
Ġobtain ed
Ġbound ing
ĠÃ ®
[] >
Q Widget
Ġcon current
ax es
Ġcomp ress
Ver bose
ĠCh romium
Ġh da
Ap ache
æį ¢
Ġhy per
ĠĠĠĠ ĊĠĠĠ
ĠC lick
Ġe g
ĠQu ick
ĠSpec ify
Ġhar mony
ĠCO RE
éħį ç½®
ig er
æĵ įä½ľ
Value Error
CH ILD
implement ed
G round
G REEN
definition s
MSearch Results
Type Info
çī ĩ
G rad
++ ];
od a
ta u
Ġan n
CO ORD
Is In
Ġp ie
ime d
u u
Ġa ir
Report s
man ent
F old
Æ °
ĠNO DE
cb c
min ute
Ġback wards
ĠS Q
6 000
pr m
ĠName s
ub ar
Get Object
50 5
ĠFrame s
tip o
çĬ ¶
Url s
PAR SE
=' /
IM R
y arn
å¤ ±
og gle
re cipe
Attribute Value
github usercontent
inym ce
Form ula
åŃĹ ç¬¦
//////////////////////////////// ////////////////
( ...
ch osen
STR ICT
- }
up loader
Get GUID
áĥĲ áĥ
ĠZ ero
ARG U
P X
part ner
writ es
ty ped
A mazon
Ġ ĊĠĠĠĠĠĠĠĠĠĠĠĠĠĠĠĠĠĠĠĠĠĠĠ
get Application
end a
vector s
W AL
p reference
Ġtr iggers
S i
Ġh l
DI FF
bottom Nav
:::: ::::
18 48
y ii
n w
z o
v k
ve h
Ġset ter
x bb
W X
Qual ified
aaaaaaaa aaaaaaaa
ro unded
ĠS B
12 71
ÃĬ Ã½
ĠW r
Ġtra ffic
ç¡ ®
f link
Rob ot
Min or
ĠCurrent ly
> ());
35 2
cons istent
ĠAir port
V LAN
æī§ è¡Į
ĠDIS P
Ġi oc
trie ves
Ġ= &
sc b
scroll bar
Ġser ialization
ç» ı
X Path
graph ic
Evalu ator
- $
Ġo dd
u V
Ġde ps
addr s
Ġallow ing
Work ing
ĠS S
ensit ivity
DE AD
L i
ĠSymbol Display
IN CT
cket s
" <
neur ons
ĠSD HCI
Bu g
Ġ' ../../
Ġ icons
ch oose
Ġparse Float
Ġtrack er
Ġif ace
Ġcomp utation
è Ļ
Ġav g
ĠMA IN
Ġ1 16
02 7
min utes
Ġblock ed
BO OK
scal atest
Ġ" ],
åı Ĭ
our ier
ĠD R
bu ck
OV ERRIDE
p it
t ang
ĠB oost
Ġover view
ĠDe fines
Off line
IZ ER
b z
Drop down
=> '
READ ME
marsh all
I K
ĊĠĠĠĠĠĠ ĊĠĠĠĠĠĠ
m ol
ĠP tr
ml me
ag ers
Ġpa lette
ĠRe pository
Ġtra cing
DCALL TYPE
Z O
Ġle ad
ĠSC SI
ĠVariable s
S inergi
g un
SE rror
ĠR AM
an iel
Ġa ura
ch er
pos itories
ĠTe chnologies
b ag
et o
ĠL T
Ġe valuation
ĠH ead
Inter action
Make file
ad m
à¥ ĭ
ĠCart esian
Ġat temp
ep och
Err s
Ġ ĊĠĠĠĠĠĠĠĠĠĠĠĠĠĠ
ĊĠĠĠĠĠĠĠĠĠĠ ĊĠĠĠĠĠĠĠĠĠĠĠĠĉ
Ġcounter s
ĊĠĠĠĠĠĠĠĠĠĠĊĠĠĠĠĠĠĠĠĠĠĠĠĉ ĠĠĠĠĠĠĠĠĠĠĠĠĠĠĠĠĠĠĠĠĠ
Ġe le
Ġu k
CAPT URE
Ġb d
Ġpre dict
pur ple
f ish
Ġunit test
ed x
Ġpro ceed
AT TACH
34 8
f op
VER BOSE
Get Name
Ġ(( __
CLE AN
st ab
inter active
Ġp ressed
S ir
int ern
Ġ> (
L ifecycle
ĠE M
er es
ĠD ump
S al
ile ges
RE ASON
samp ling
CO DER
COMM ENT
Ġtre ated
/**************************************************************** ****
far ng
D HD
F ETCH
P ing
Ù ī
Ġ) ->
27 2
ard own
75 4
åĨħ å®¹
. (*
Ġear lier
un install
Ġs ong
im ized
Un safe
ĠA lign
ĠB atch
AB ORT
3333 3
h ole
Re fs
ir l
CH K
Ġpro viders
Ġtime zone
abb rev
attach ments
ok u
colbert report
P ublisher
re interpret
Ġy ii
Get s
02 9
the colbertreport
ĠPAR AM
c ritical
Ġw all
Ġis Valid
bu st
EX TI
Ġfrag ments
ĠMarsh al
c rit
in ja
lex er
G l
Ġ čĊĠĠĠĠĠĠĠ
ĠCON STRAINT
64 6
[ ![
Ġedit ing
Ġt ries
ĠL ONG
ĠSystem s
44 9
ĠCon straint
iter ate
@@ @@
Dig its
Char set
35 6
åį ģ
no ise
Block ly
SOF T
With Error
B old
r type
Ø ²
ä½ Ĩ
ĠDim ension
ĠLL VM
00 40
cre st
implement ation
H U
I fc
s ensitive
% \
tr ust
User Data
White space
D ashboard
Mag ic
28 7
ĠId ent
åĳ ½
ĠE MP
Ġimport ed
Command Line
ĠPro to
Ġp ing
DI ALOG
Ġg ithub
G ate
R PM
ĠP Y
Ġv oice
Pattern s
Ġ( /
ĠC PP
× ĵ
64 7
ER AL
persist ent
L atest
mm io
È Ľ
len ame
buf s
content Type
G ain
æĺ¾ ç¤º
Ġo mitted
Ð¸ Ð½
ĠA CL
Get Data
MM Y
V ictim
gr unt
xE F
b ounce
ate ly
Ġoper ating
TRAN SP
Ġbad ge
ali ases
H ardware
x ab
Play list
ĠDESCRIPT ION
A AC
Ġc aster
11 00
ĠC r
å¤ į
ĠO WNER
ĠActive Record
02 6
Ġ ing
Ġ' :'
| $
) ].
p Data
Ġgener ating
è¿Ľ è¡Į
B onus
ap id
con str
add Item
Ġf ig
Jav adoc
un shift
LAN GUAGE
x sd
fo c
60 6
44 8
E sc
Ġs un
g pi
ĠConstruct s
ĠAre a
DE T
Ġoptim ization
Middle ware
ĠEnd point
Enumer ation
Med ium
off icial
ĠP LAYER
ME D
//======================================================================== ======
get s
Filter ed
Ġc rypt
Com bat
bt tm
å¤Ħ çĲĨ
app y
ĠId entifier
ĠTw itter
Ġ UL
re cover
ing u
ĠTIM ER
Ġeas ier
T enant
Ġ1 40
æī ĭ
A Z
Ġb o
04 9
ee prom
d as
25 1
ĠI gn
AP IC
ĠCon st
TO O
b link
ĠN okia
sc anner
To List
sect et
à¹ ī
Y M
çĽ ´
MO USE
Sub mission
RES OL
gre dient
Ġin vert
h or
item ap
Ġte le
Ġd n
h ass
it ness
80 3
ĠCON F
alle st
Ġbe haviour
Red uce
b ur
ul la
Ġun iform
ME SH
NO W
Ġurl s
Ġc ritical
Ġde grees
"> ()</
get ter
ĠS PD
h ack
ĠP ixel
ok er
Ġc aching
str m
ĊĠĠĠĠĠĠĠĠ ĉ
SQL Exception
Embed ded
th ough
ĠM ongo
ĠId entity
ib m
p ent
re peated
Node Id
Ġexit ing
Ċĉĉĉĉĉĉĉĉĉĉ ĉĉĉĉĉ
go al
Ġs x
Ġa mb
U MB
AR GE
Ġcom bine
Sc aling
Ġag o
'] ]
Ġal bum
ĠPre vent
++++++++ ++++++++
ĠUtil ity
(' $
roll ment
Ġf h
ĊĊĊĊĊĊĊĊĊĊĊĊĊĊĊĊ ĊĊĊĊĊĊĊĊĊĊĊĊĊĊĊĊ
B enchmark
Ġ4 096
Ġ urb
gu y
Ġtermin ate
F OL
Ġc airo
"> _
AT I
ĊĠĠĠĠĠĠĠĠ ĊĠĠĠĠĠĠĠĠĠĠĠ
Ġback ward
Ġassume s
ĊĠĠĠĠ ĊĠĠĠĠĊĠĠĠ
ĠA X
Ġaff ected
è¨ Ń
ãģ į
Ġclose st
Ġl ife
act ic
ERT S
dis covery
Absolute Path
ĠRe store
Ġv b
t gt
Ġd ates
ĠResource s
Ġm bed
Ġh p
ĠInterrupt edException
ĠProvide s
() ");
K ILL
Ġty pically
Ġ========================================================================= =
" ",
ĠState ment
ĠT or
MON TH
Ġwire Type
Ġth d
ĠJ oin
che f
Ġregex p
se lenium
Ġw iphy
Http Client
Ġt or
ĠPro vider
ãĥ ĩ
Ġplay list
Contact s
IC ODE
can ada
B AT
in el
g fp
ĠC MS
Ġp name
Temp orary
M n
search box
Ġexp ired
Ġcons ists
gra v
Sol r
N IC
x af
ĠC V
Ġdef ining
PRE SENT
i dev
m tx
Ġreceiv es
b illing
out file
Sto pped
ĠPan el
C ms
l or
bb bb
py test
}/ ${
Ġcar ry
L U
ĠG E
Ġhe ading
valid ators
ĠHttp Servlet
ion al
min der
al er
get Operand
BROW SER
"> @
me ssaging
AR C
ĠÐ´ Ð»Ñı
34 2
me ss
ian a
enk ins
Ġd ro
50 8
e hci
ĠR uby
æĶ ¾
Ï Į
erc ise
ar er
Me an
Ġenable s
() ==
user model
29 2
mult icast
BIND ING
Ġqu antity
d to
JSON Object
å½ĵ åīį
ID S
B ubble
ĠD AG
As sembler
Ġmis match
Ġagre ement
ĠM ult
pair s
4 30
ĠHe aders
OPER AND
P MD
key Set
s an
Ċĉĉĉĉĉĉ ĠĠĠ
ĠĠ ĊĠ
Ġ` .
": ["
ĠQ Latin
ĠW arning
document s
ll d
"> :</
Ġget Type
ĠByte Buffer
it t
Ġacc ord
f cf
Ġp fn
ĠFOR CE
Ġse aled
čĊč ĊĠĠĠĠĠĠĠĠĠĠĠĠĠĠĠĠĠĠĠĠĠĠĠĠĠĠĠĠĠĠĠĠĠĠĠĠĠĠĠ
Ġse p
tv buff
Wait ing
P aste
at in
Ġco lour
] ="
ĠIN S
m art
g pr
ĠC AM
GetType Id
QUIR K
ĠI PT
ĠB ecause
Ġproto buf
T XT
ĠK C
Ġfull Comment
æķ Ī
inter p
(* )
ĠGe ometry
ĠP AN
ap r
ĠB CHP
ib ernate
(_ ,
ST E
bu gs
à¸ ģ
ign ite
read ing
be low
Ġassert Equal
60 5
ä» ¤
Ġn f
ĠList s
just ify
G D
wait For
Bl ur
unct uation
class method
AB B
ĠR o
PO SIX
Dis connect
ng doc
/ <
Ġh ole
face t
stop ped
pos ix
ce c
ãĤ ī
x fa
Ġjav ascript
S AS
ĠI TEM
Ġprint ed
F raction
ì ľ
Public Key
ac ct
Ġform ula
Ġextension Registry
Re striction
ĠP RI
ag ue
ãģ Ĩ
Man ip
Ġmat ter
MIN OR
Ap pro
; ");
Ġsk in
Ð Ĳ
md l
Select Item
ID ER
02 1
w lan
C Q
ut ron
irq s
Decla red
x eb
bt ree
R Q
Ġan imate
e ast
VOL T
A utomatic
Ġexport ed
Ġ čĊĉĉ
Cre ating
RUN TIME
Ġsub mitted
è£ ħ
get Response
Ġget Id
ĠSign al
O U
G uest
ç ¾
ĠB order
ĠS CTP
Da emon
Ġbuild s
c it
Re cursive
Ã¡ n
ĠC a
ik a
FIN ISH
L int
v out
M ost
Ġsuc ceeded
BI AS
ç Ł¥
activ ated
s uch
set Current
text Content
Ġ---------------------------------------------------------------- ------------
w nd
emp loy
ĠPro b
openg l
Ġdiv ision
CL I
inherit ance
> ')
e ther
sw agger
n or
ĠSTDMETHO DCALLTYPE
Ġs ingleton
ĠĠĠĠĠĠĠĠĠĠĠĠĠĠĠĠĠĠĠĠĠĠĠĠĠĠĠĠĠĠĠĠ ĠĠĠĠĠĠĠĠĠĠĠ
è¡¨ ç¤º
H INT
Ġst able
(! $
Ã¡ s
P df
ĠCR YP
m vm
str pos
ATION S
Ġesc aped
Ġcon sectet
Ġunder line
cons ume
Ġ ----
der e
Ġt alk
RE PLACE
34 0
reg istr
h azelcast
ĠIn stant
36 7
Members hip
Ġstr pos
cond ensed
Ġdescri bes
? ',
K ill
syn opsis
a io
i ot
y l
Data Table
g ps
čĊčĊ čĊčĊ
564 2
Ġplay back
ĠAg ent
es i
Al ways
ĠDo ctrine
ene ss
g ent
get Session
L u
s ack
x prt
Ġax es
"=> "
ĠC ancel
Ġg uess
} $
Ġer ase
ãģ ķãĤ
card s
* </
To k
Ġinvalid ate
SEQU ENCE
Lex er
Ġ$ (".
Com m
Q Q
Ġfile path
æĶ ¶
g ms
in form
que t
ic ient
Ġcons ume
à¹ Ģ
ãĥ ĳ
>{ @
PFN GL
æ²¡ æľī
` );
An n
under line
J PEG
Ġ1 200
upload s
j gl
ĠJ o
A HB
DI AG
Ġ7 3
ĠOB JECT
is Object
un able
76 9
Ġn ice
GRO UND
Ġp resence
pg m
ĠP J
Ġ` ${
Ġn i
Ġre cogn
Ġ" /**
Ġfix es
Ġide a
P lug
us able
RE TRY
f all
Ġ_ (
P refs
Ġa md
war ded
ip a
Su spend
Mapping s
Ġinit ializer
W K
Build ing
## _
Out line
æ¯ ı
roll back
GNU C
eeee ee
Ġcap s
trav is
ç®¡ çĲĨ
re strict
ĠS um
Ġg imple
wikimedia ui
set Type
str casecmp
Ġ1 14
draw er
yst ick
UN C
28 3
p Ad
att ached
ĠMY SQL
Ġr uby
Ġe lems
Not ifications
ynam ics
ĊĠĠĠĠĠĠĠĠĠĠĠĠĠĠ ĊĠĠĠĠĠĠĠĠĠĠĠĠĠ
Ġ Ú©
Bu iltin
ĠInt Ptr
ãģĹãģ ¾
è°ĥ çĶ¨
Is olate
c ad
gl Get
lo red
Ġde leting
be haviors
dev s
ĠIntern et
", $
$/ ,
( ...)
P DO
e ye
áĢ ¬
Ġcondition al
und ant
Per form
Ġc txt
29 0
Cla im
qu er
oo b
Port al
b ul
st udio
ĠIter able
p io
cb i
ĊĊĉ ĠĠĠĠĠĠĠ
f af
ST AGE
mem cmp
En ergy
uint ptr
ĠTe le
: ;"
ĠNull PointerException
H old
Com bin
å®ļ ä¹ī
Ġgr unt
an c
Pair s
Access Token
ap ro
typeName Label
T ake
Ġ( ;;)
v w
é ª
Ġ Øª
mt ab
mong odb
: !
lv l
Ġk v
Ġaccess ible
Ġr r
Ġex posed
Ġpack ed
=' %
n api
ms leep
ĠEx pect
APP END
Ġf m
ĠSc ale
Å ¯
Ġ202 1
t orrent
ĠFe ed
q ty
99 8
As sets
Draw er
ex tras
MS B
iver se
M Hz
FIELD S
Û Ĵ
ĊĠĠĠĠ ĊĊĠĠĠĠĊĊĠĠĠĠ
type param
lp Vtbl
3 14
S IS
ĊĠĠĠĠĠĠĠĠĠĠĠĠĠĠĠĠĠĠĠĠĠĠĠĠĠĠĠĠĠĠĠĠĠĠĠĠĠĠĠĠĠĠĠĠĠĠĠĠĠĠĠĠĠĠĠĠ ĠĠĠĠĠĠĠĠĠĠĠ
Ġf g
Sto ck
Re cipe
ĊĊ ĊĊĠĠĠ
Ġw ildcard
M ul
ĠM oodle
=" "><
ĠAdd SC
Ġe fficient
ĠĠĠĠĠĠĠĠĠĠĠĠĠĠĠĠĠĠĠĠĠĠĠĠĠĠĠĠĠĠĠĠ ĠĠĠĠĠĠĠĠĠĠ
B X
O SC
Ø³ Øª
B i
CH R
åħ Ī
i am
ĠAnnot ation
ĠS afe
Ġk lass
Ġde letion
T OTAL
d ue
b rightness
CONNECT ED
Ġno op
ĠFE ATURE
k d
ĠFe atures
L ife
Ġt ro
ĠT V
ĠD IST
AD J
Ġhas n
Det ection
ĠonMouse Up
sh int
E very
ĠHE AD
Read able
ĠSign ature
back ward
fo ob
ĠRepresent s
Ï Ĩ
Ġc ookies
80 58
END POINT
ĠC amera
bit Field
ĠĠ ĊĠĠĠĠĠĠĠ
SI DE
3 15
C AR
Ġopt imize
ĠMem bers
re lay
åİ »
N u
] ()
s ce
get Entity
77 5
Code d
x db
Get UInt
à¤ µ
j um
Ġd ans
Ġg rade
ah o
ro am
int ernet
Ġeffect ive
ĠD ir
Ġde crypt
Ġway s
! ("
# /
lat itude
Re quires
K V
Ġn id
ĠD F
Ġ% >
i ri
G allery
T p
26 1
Ġn pm
Ġs py
k h
ĠS F
pe ts
get Position
ĠW S
cla mp
dump s
] ==
o la
Ġg f
ĠC rypto
Ġens ures
Ġ las
sn mp
L etter
he at
Primary Key
re trieve
pro jection
1234 56
ĠDest roy
d ual
f ence
Ġr w
re write
ER IC
ï¼ Ł
Ġm ul
() )));
Ġcomp osite
è¿ ĺ
sock opt
associ ation
f ib
pp y
h ang
h da
Ġtr ap
col group
[ *
un less
Ġsynchron ous
n j
ĠR ot
'] ."
comp ilation
Ġe mp
St udent
Per f
xF B
); //
50 6
39 8
] ");
Product s
E U
Ġ10 8
ĠN R
SI MPLE
computer output
ĠW idth
Ġaccount s
-> $
Ġto day
ĠB reak
n la
normal ized
Ġnew er
ile stone
Th ird
get F
ĠL ic
Or Update
Ġcontext s
ÑĢ Ð°Ð½
Ġtr ust
Ġal ternate
set Default
'] ).
present ation
SH ADER
Ġpro g
è ³
od ies
č Ċĉĉĉĉĉĉĉĉĉĉĉ
ist d
ĠM V
ends With
d rip
Ġde leg
DIP SETTING
z m
39 4
util ities
dat um
com bine
Ext end
frag ments
Code Analysis
mail box
ĠD ay
Ġ] ];
ĠRe ader
S dk
Ġo ss
ĠDetermin es
grad le
sn ippet
Q Object
Ġguarante ed
Ġmod ifiers
Media Type
Ġg pointer
] "},
Ð² Ð°
Ó Ļ
ra ck
ind ic
group Id
ä» ĺ
ĠThere fore
P IC
w ol
Ġin ventory
ĠSQL ITE
Ġ1 70
ar ith
Ġas sets
ĠHD MI
>> >>
ĠB TRFS
Pro tected
Face t
Ġf la
Ġquot es
Ġs udo
ĠE ither
TI LE
S sl
Ġb f
che my
se y
Data Provider
ur is
pas sed
) ';
ĠX FS
89 21
Ġc pp
A O
Ġd h
ĠArgument NullException
Ġ ĊĠĠĠĠĠĠĠĠĠĠĠĠĠ
04 1
is NaN
Ġper m
à¸ £
å ĥ
de limiter
ro ck
Ġ' {{
="# !"
38 3
EXTERN AL
Node Type
v addr
Desc ri
add To
39 6
QU OTE
ĠMOD ULE
/ ${
Ġreport ing
' ";
UP D
WINDO WS
set ter
clip board
String Builder
ME lement
Ġencounter ed
28 2
77 6
foot y
Ġt ap
il it
ac a
Ġ(* (
S q
H IT
sp irit
test er
Ass oc
Dig it
get Properties
install er
Ġd si
ĠQString List
Alloc ate
Ġp st
Ġp refer
ne on
sh uffle
M apped
/ ~
Ġdynamic ally
ADO OP
ioc b
re alloc
Ġ} \
FI RM
64 8
sub s
Ġmbed tls
B V
H F
ç ¥
bre w
set Title
64 9
C pp
SK B
M vc
S il
ĠH and
get Image
à¦ ¯
DIS K
åĢ Ļ
rol lable
Ġmonth s
Ġc tor
Ġ[ @
Ġme d
åĬ Ľ
Ġsig ma
Sum mon
y g
interrupt ible
Ġm ux
q ml
87 1
MAC RO
em ale
Ġwh atever
Ġdetermin es
run e
x df
ĠEE PROM
at ives
Respon der
Ġload s
u z
ĠH lo
ĠT AB
entry Set
bi os
pat ient
ĠEx tended
P or
iv a
ĠH P
percent age
ĊĠ ĉ
ĠS at
), (
aly z
: @
ĠT ASK
mo od
datas ource
M ob
Node List
ĠCal cul
» åĬł
à µ
AC Y
c las
Rep lica
T iming
p ch
sheet s
Ġsession s
get Target
Â Ģ
ĠN C
CON DITION
ĠAd just
Pro mpt
Re covery
App le
cv p
F AC
ĠT T
Ġlow est
Ġshow Name
ĠEN V
middle ware
Ġ ray
Ġra ised
Ġauto complete
KEY S
Ver b
LE TED
Ġ8 1
E t
de tection
ms dcc
s ale
Ġa w
panel s
plan et
DAT ABASE
Ġex pires
04 2
Ġon load
Unexpected EOF
à¥ ¤
bit rate
>:: <
( \"
ache s
Ġs lug
clu sters
tr unc
put ime
cl in
Prop Types
dev tools
sub st
FA CTOR
Prototype Of
dif ference
title s
Ġmk dir
sc or
un ity
Ġr ating
Ġf avor
long itude
AF TER
C ube
et te
es Module
ĠI lluminate
Ġc fs
66 8
Ġ× ľ
RE PLY
FA MIL
Ġplace ment
st aff
Ġe sp
Ġca ref
ch i
alt ura
s anitize
à ª
ra form
TR I
Ġconstruct ors
Un install
. "));
S phere
x ec
E OP
G ot
P ic
Ġsession Id
quot ed
Is Empty
Det ect
j c
de ck
čĊĉĉ ĠĠĠ
to Have
Stream ing
sil ent
DE TECT
Ġ<< =
Init ialization
ĠH CI
Value Of
ĠCO UNT
Man ual
FL T
jac ent
G Y
x attr
Ġs vn
coul d
lw jgl
Ð½ Ñı
Art ist
Ġp info
Ġoption ally
Ġcorrespon ds
Ġn ick
Ġde signed
Ġmod ifications
ĠTr ansport
n Ã©
Sh ot
compar ison
C DATA
iv i
Err UnexpectedEOF
() >
Ġm ob
Ġdis covery
sp l
ĠR ails
LIT ERAL
sub sys
no DB
ĠMix er
l ife
v h
ĠN B
02 02
Ġcom mercial
x da
UT DOWN
Wire Format
Ï ī
Ġs uff
38 5
gs m
æĿ ¡
PRO BE
en velope
x cf
Ġc lang
ĠScal ar
ĠP rep
è¯ Ń
ãģ¾ ãģĻ
assert NotNull
ĠĠĠĠĠĠĠĠĠĠĠĠĠĠĠĠĠĠĠĠĠĠĠĠĠĠĠĠĠĠĠĠĠĠĠĠĠĠĠĠĠĠĠĠĠĠĠĠĠĠĠĠĠĠĠĠĠĠĠĠĠĠĠĠ ĠĠĠĠĠĠ
sleep y
Ġc losure
Ġn to
ED TLS
ĠAd apter
Ġlength s
sur vey
3 12
Ġp ts
Sp ot
ASS OC
Clip board
Ġfor um
UN IX
iter ation
m oney
ĠP lan
ç§ °
. +
Ġn m
ĠS ame
ãĥ Ĩ
TIM ING
ĠL DAP
id r
J MS
Occ urs
response s
dat atable
S lots
ĠH Z
Ġsc enario
mix in
tri angle
Ġ0 644
78 4
get Model
čĊĉĉĉĉĉĉ čĊĉĉĉĉĉ
F RE
g as
AC CEPT
ĠA I
Ġsc ala
ĠK nown
SO UND
Ġactiv ation
') ])
x id
y t
; */
d bo
tr ash
ĠM ultiple
tile s
Ð° Ñģ
Function al
ĠTra its
G amma
ĠTest ing
hance d
ç³» ç»Ł
Ġcheck er
dig ital
def group
è¿ Ĳ
f light
a is
Ġle ader
ĠS CB
` ](
Ġonmouse over
- &
Ġpro viding
Î ¬
ĠN ONE
c sum
Ġs alt
Iter ation
Mov es
Ġ1 17
ĊĠĠĠĠĠĠĠĠĠĠĠĠĠĠĠĠĠĠĠĠĠĠĠĠĠĠĠĠĠĠĠĠĠĠĠĠĠĠĠĠ ĠĠĠĠĠĠĠĠĠĠĠĠĠĠ
Ġq t
ĠJSON Object
ĠPur pose
Order s
u delay
ĠG URL
F OLDER
st uff
temp erature
C mp
al c
De fs
Anim ator
k c
Ġflat ten
ch romium
ex cerpt
Î Ń
tra de
WITH OUT
subscription Id
Ġe ss
(' "
Ð¾Ð³ Ð¾
ĠK ind
Change Event
back drop
gen e
N a
k afka
ãģķãĤ Į
add Component
Not ifier
Ġimport s
tim ers
Present ation
M id
ĠS il
EN GINE
Ġad v
Sub string
ĠData Type
Ġm en
ĠP ossible
åĿ Ĺ
ec x
Ġin i
ĠN FS
ir is
Top ology
some thing
N ear
S X
Progress Bar
OBJ S
Ġd g
ĠP atch
su c
compare To
d B
p mem
ur ator
Depend ent
ĠBus iness
p ins
SE CUR
Ġv t
EQUAL S
Ñ Ĭ
Image View
VAR CHAR
q w
=' '
x ce
Ġnav igator
---------------------------------------------------------------- ----------------
c ri
(" \\
RE P
ĠD avid
Ġr nd
ĠLO CAL
G PS
Point F
Ġul ong
aut op
Ġfield Name
, <
88 9
Ġ9 4
ĠS SH
ĠW atch
Ġsd hci
è¯ »
govern or
ĠĠĠĠĠ ĊĠĠĠĠ
Ġcol lision
Ġapp ended
char acters
track s
Ġintegr ity
Logger Factory
s ales
Ġt aking
Of Type
fil ing
W as
Ġl u
ĠE asy
Ġsub process
BIT MAP
cell aneous
S izer
Comp ressed
W ORLD
// *
05 4
Mod ification
un istd
75 6
ë¦ ¬
z k
Ġimpro ve
download s
Big Integer
Ġg id
Ġ($ _
åħ ·
ĠC enter
AL C
Edit ing
nom bre
ar win
__ ;
Ġnamespace s
ji ra
Ġinter section
Ġbus iness
ro b
get Query
S lave
Ġn t
ĠF un
Ġsc anner
æľ ª
Scroll Bar
In flater
Ġb enchmark
Le ader
50 7
Tw itter
Ġprogram s
k gsl
ff t
ĠCol lect
Ðµ Ð¹
q us
s addr
out Error
v tk
b abel
el rte
Ġph oto
Ġl bl
ĠM ost
xb d
ere f
on ym
has is
x ED
As sessment
ÐµÐ½Ð¸ Ðµ
special chars
Q Name
dp d
Ġ( --
74 6
ĠItem s
ĠEqual s
Ġser ve
Ġne arest
Ġcard s
">- </
fra structure
/ &
S DIO
amili es
ĠMake file
39 7
ì ĸ
type NameLink
pri m
Ali ases
get Root
'] ));
Ġtra it
s lim
oc r
line To
27 3
success ful
Ġge om
lo on
over load
36 3
Ġfail ures
Ġwake up
č ĊĠĠĠĠĠĠĠĠĠĠĠĠĠĠĠĠĠĠĠĠĠĠĠĠĠĠĠĠĠĠĠĠĠĠĠĠĠĠĠĠĠĠĠ
dd ir
Ġre scue
ĠM ed
N OR
p ast
ph inx
64 5
ĠPer iod
ĠP AD
net ty
4 29
S AM
A to
g rep
s dl
Ġb h
local s
tt f
ÂłÂł ÂłÂł
b pp
set Up
ro bo
TI FF
Frame buffer
Ġqu it
FAMIL Y
Ġ1 24
Ġdot ted
ĠSM ALL
o sc
OR IG
Ġx x
ĠUp load
Ġc redit
St udio
SC ROLL
ĠCatalog ue
right s
pro ducer
BU ILT
SA CTION
Create s
Get Position
Sub stit
SECUR ITY
Max Value
Ġdescri bing
get Connection
Ġl n
AL WAYS
Ġro bot
un load
Ġ> &
ĠÃ ¡
ĠCom mit
($ .
Ġ4 80
Char ge
Ġsome times
ĠA nt
Ġ\ (
An onymous
SH ELL
æĻ Ĥ
Radio Button
Comp ress
md b
Output s
Str ide
ĠT oggle
AR N
App s
ĠN v
ĠAssert ion
Ġm arsh
ĠD M
L et
Ġ(( !
SI ST
ĠHandle s
//////////////////////////////////////////////////////////////// ////////
ĠZ one
Ð ¢
enc ia
* _
H DF
ĠN F
ne ver
Met er
ĠC SV
ĠC Wallet
SI MD
Ġmin imal
Cor ner
stop Propagation
ĠDepend ency
ĠSYSC FG
"> \
linked in
ĠSTY LE
01234 56789
p aste
In Progress
Is True
Ġpro ducer
foob ar
Ġs rv
Ġo sc
Ġdw c
> );
Ġconfig urations
ĠFile System
Ġ' |
Ret ention
Ð ł
RE CE
ĠTime Unit
? '
ĉ ĠĠĠĠ
ĠM IX
ĠG DK
Ġnew s
Con cat
Ref lect
for ced
Return Type
(/ ^
LIT TLE
Ġend ian
Ġa o
(& $
Key words
ĠAUTH OR
s is
Ġout file
bar rier
XML Schema
8 0000
Ġde veloper
Ġport ion
ff s
ask et
if eq
Con vention
PM U
ĠA TA
Read Write
maint ainer
S ORT
In et
Ġpr incipal
Ġth umb
ĠT ake
chn ical
Ver ifier
å¾ Ī
åı¯ èĥ½
åľ° åĿĢ
e ase
g mt
Pod s
Å Ħ
get Method
Ġan cestor
ĠUn ique
Gtk Widget
Ġnode Name
member of
C apt
Ġ* ****************
Ġpop ulated
(' --
en ef
Tri angle
Ġal arm
/ $(
å®ŀ çİ°
g int
im on
Host name
m z
ig id
set opt
ne igh
Cart esian
H ADOOP
ĠP aint
gr ading
Graph ic
,, ,"
; ?>
Ċ ãĢĢ
dis ks
Rec order
ĠT OK
ĠD IV
ur y
ro k
data Provider
P resenter
dr upal
Ġad vanced
à¦ ¬
F x
Ġstr error
Format ting
rt imer
op h
Ġs ampling
ck e
set Font
DO UT
REQUI RE
9 09
en arios
emon ic
chie vement
Big Decimal
O id
n to
remove All
Th ree
ĠEl se
co ordinate
Ġ1 98
ĠInst ead
88 7
Ġre build
Ġ") ";
pur ge
54 6
LAN K
Ġpro duced
æµ ĭ
Ġf und
mod ifiers
h op
re me
De veloper
74 2
shape s
Ġarch itecture
at on
mark ed
Ġsearch Results
å® ¢
Ġ---------------- ----------
Ġde sktop
Ġf close
os itor
Ġre m
ion es
hot plug
ĠCustom er
ĠLim it
34 3
ch arger
ĠĠĠĠĠĠĠĠĠĠĠĠĠĠĠĠĠĠĠĠĠĠĠĠĠĠĠĠĠĠĠĠ ĠĠĠĠĠĠĠĠĠĠĠĠĠĠĠ
Sub net
Ġlat ency
b attle
Ġfield set
P ATCH
get Block
rect angle
Ã¼ r
oun g
´ ë
ĠV ID
mark ers
NAME S
m data
ing Type
to Int
Bu ilt
_ ));
y p
Ġcommun ity
sh ield
ĠW EB
35 3
L atch
em a
Ġsh rink
x ee
ul ary
ĠL isp
post gres
Ġon Create
Ġun pack
Ãµ es
Ù ¹
ĠOUT PUT
ĠO MIT
COMPI LE
) ')
B io
ĠHe ap
ÐµÐ½Ð¸ Ñı
=" &#
ĠÐ¾ ÑĤ
List Result
Calcul ator
Ġst oring
BR ID
ĠJ AXB
cord ova
Ċ Ċĉĉĉĉĉĉĉ
Ġ1 90
ãĤ Į
Ġdebug ger
ĠON LY
Ġ1 66
event Name
ĠH ide
Ġclear fix
Ġì ķ
ular ity
Ġextract ed
Org an
inter est
priv acy
Bit coin
d sc
v ic
re di
IC IT
lin ical
$ ,
Ġ2 04
Ġtermin ated
y ahoo
Ġse ct
main window
i ar
(); ">
__ ('
out b
Ġscroll ing
Ġn x
$_ ['
C tor
p du
SS I
pt ime
lu ent
Ġemit ted
ç¨ĭ åºı
ĠSer ialize
Ġv im
Ġ' ]
03 7
cd f
ĠCan vas
abab abab
ch t
Qu it
ĠDe code
Return Value
M U
ĠTe chnology
abl ished
Ġe poch
map reduce
78 1
ç§ »
Ġb ias
ne cessary
j free
annot ated
ì ķ
SU ME
charCode At
K NOWN
Ġcon venience
54 7
Generated Message
Ġl v
SP LIT
M agento
Ġnew line
Ġrep lication
76 5
SF ER
37 3
ES P
Record ing
Ġtime d
Ġcla im
s lick
Ġ" |
ĠC ould
Av atar
b ubble
ĠD at
Ġbe yond
cond itional
å¯ ¼
A uras
her ent
Ġconsectet ur
ĠN RF
uc er
report er
set Visibility
of ill
Hdd Ctx
me mb
ml inux
Ġh b
ĠKERN EL
ê ²
Ġp refs
ord inal
opt imize
ĠSer vlet
deep Equal
# _
C am
n ik
ĠAss oci
ĠID C
Ġreser ve
Ġonmouse out
veh icle
IN CLUDED
ä½ ķ
set Style
scor lib
Ġconstruct ed
Ġinter pre
Ġret Val
ĠEn coding
M ST
` </
x dd
ĠB lack
UR IComponent
Ġver b
g char
pe s
27 1
... \
Ġ% "
èµ ·
> (),
ĠP ack
W ET
er ce
ĠM sg
ä¿® æĶ¹
dct erms
ĠLAT IN
P OR
Ġb id
debug ger
PA USE
\ ""
c info
ĠI MAGE
AV X
Ġp reference
Pro cessed
'] []
table t
Ġf use
IT IVE
V X
Ġdist inct
g ar
ab ove
ĠM esh
Ġcomp ared
property Name
ĠCall ing
S int
p late
od s
Ġdat as
F ar
69 6
Ġind irect
CO OKIE
è¯ ģ
B rowse
Ġup loaded
Add on
end points
ĠL INE
abc def
ĠEV P
sp rit
Ġsearch ing
vir Domain
Ġw lan
ud ge
ÑĢÐ°Ð ²
([ [
S ock
sec ut
M IS
%%%%%%%%%%%%%%%% %%%%%%%%%%%%%%%%
C as
list ed
ĠAL C
q la
ype s
custom ize
GENER AL
bss id
P UB
send coins
GO OD
Ġpa inter
ĠC B
Ġint val
add Listener
ĠU DP
Ġp references
48 9
Ġop aque
db l
dt s
resh ape
Ġcycle s
foc used
w ml
ĠDet ect
ĠVar iant
Ġ$ ('<
Pro tection
J E
34 1
IB UTE
ĠBe fore
emp lace
Ġmet av
with in
Ġv ch
Ð¾Ð ¿
ĠSer ies
Mark et
We ather
ĠOper a
Ġa ug
ĠR S
Ġinter action
__ ))
NOT ICE
EVENT S
Ġke pt
v est
pi ed
CRE T
áĢ ¯
ĠCUR LOPT
Ġbe hind
Ġturn ed
photon ui
av ctx
EL F
orange hill
orangehill dev
as oc
Ġdisplay Name
h v
up ort
éĤ £
200 2
ĠG B
Sub scribe
ĠEMP TY
b ps
ĠC op
ĠUn ity
h ierarchy
ĠCur sor
SPHINX OPTS
Ġde coding
Ġinter cept
e es
Ġw er
cla zz
z x
// $
Ġre fs
Ġst ock
Back Color
ĠDe lay
Sto red
ĠK o
find One
' ^
ĠE very
Ġcont rollers
group Box
TR L
Not Supported
w id
Ġ -------
Ġb roker
Ġr dev
IS A
Ġt l
ĠA SM
check point
Ġyour self
Tra versal
Ġfind ViewById
Play ing
LOCAL E
X I
¼ </
COMP RESS
st ors
') ]
ĠD irection
, *
CHAR ACTER
se x
r val
ĠQ VERIFY
lo om
Session s
MI ME
6666 7
De leg
tab list
NOT SUPP
uc hed
Ġlock ing
ĠMod ify
ADAP TER
sp read
x FA
ĠF ragment
Ġrun Query
Â¤ Â§
3 11
ol ated
ag ain
{ };
Cal culate
pur chase
Ġm isc
col lapsible
ĠĠĠĠĠĠĠĠĠĠĠĠĠĠĠĠĠĠĠĠĠĠĠĠĠĠĠĠĠĠĠĠ ĠĠĠĠĠĠĠĠĠĠĠĠ
dh cp
Ġm ong
Ġr f
Comp osition
ĉĉĉĉĉĉĉĉ ĉĉĉĉĉĉĉĉ
Ġw iki
Ġcopy ing
ĠContribut ors
Ġevalu ated
Ġ*/ )
è¯ ¯
W ifi
get Result
}} }
R ich
or ian
qual ified
78 5
Handle s
ĠD rag
},{" ./
Ġre lay
T ICK
Ġsign ing
ĠMod ified
i lo
Ne g
drag gable
edit ing
Ġj oint
TR ACT
Ġg ulp
Ġinter sect
Ġo w
Default Value
C losing
Ä ĵ
ĠR ew
48 6
Ġf x
ĊĉĉĊĉĊĉĉĊĉ ĊĉĉĊĉĊĉĉĊĉ
ph dr
: ;">
bucket s
Ġactiv ated
44 3
xb c
ĠPAR AMETER
res se
Ġdevelo ped
ĠðŁ ĳ
Pur chase
P ING
u str
Ġsys fs
Ġsaf ely
t an
ref lection
AAAA AAAA
G ray
set Content
static method
Local ized
PA IR
Ġe in
ition s
Sc r
Client s
39 2
æ ¢
Qt Gui
Ġp ract
+ /
ĠU NS
ĠHF PLL
G ING
V DD
Ġe limin
i ations
ĠL ab
F allback
WE IGHT
Lim its
ĠDig ital
ĠU IColor
Ġ'/ ')
Writ ten
p ers
AN ALOG
replace ment
4 40
CH UNK
illa ume
Bucket s
WH ITE
D rv
m ne
v sync
In active
Ġinter est
Ġsol ve
pa que
ng x
re map
Ġo id
next Token
5 32
ĠM apping
ĠJ ohn
STR ONG
ĠBig Integer
Av ailability
st retch
al lax
Ġ" ..
Ġpartition s
rs quo
e lapsed
sy mlink
ĠC E
ä¾ Ľ
ãģĹãģ Ł
ocab ulary
Ġ(" %
Key Down
36 2
Ġsim ulation
b ay
Dif ference
C he
x ba
ct ime
Ver ification
pass wd
Ġr h
No thing
Ġwx String
it ute
tr k
gram mar
ĠR OM
BL END
f ad
mi ses
à¦ ª
æİ §
ĠLAN GUAGE
buffer ed
om g
om inator
Sh own
ĠMD SS
Ġstr dup
ĠCRE ATE
S chool
W elcome
.. '
Desc r
Ġdirect ives
Ġpat ent
P VR
p q
sp r
key down
ĠU ses
Ġown ed
Ġ` '
R m
ib bon
# __
F AR
=" ?
Ġr u
Ġex ceeds
-------------------------------- ---
SUP ER
L DO
^ {
is Debug
s dev
instruction s
in der
ĠIn s
Ap is
ĠMon itor
P seudo
w dev
74 7
nt l
L it
ĠT EMP
ĠD uration
88 6
å¤ ©
tl b
ĠSQL ite
CPP FLAGS
= {{
Equal ity
n ex
Re cogn
reg map
39 5
è ©
=" {%
ĠH ASH
Tr ust
mi os
60 3
ĠRed irect
Ġ eng
Ġ9 3
P olicies
reg ression
get Index
Ġl argest
ĠD ATE
time d
Ġget Current
context s
g x
_ :
i B
ï¼ Ľ
Ġexpect s
åĪ Ŀ
sub set
LD AP
} '.
Ġb cm
AL EN
Ġm td
ĠM ID
Ġgl Get
Ġì ł
V G
à§ ĭ
g test
Ġest imate
w elcome
ĠIf c
RAN DOM
S uc
r ans
MIL LI
q com
Ġp aper
mo j
Ġ# -}
remove EventListener
ĠCHAR SET
IC H
76 3
ĠPro pel
bench mark
CH AT
php unit
acion es
99 0
MET ADATA
P ossible
th rottle
ĠUn der
Dir s
ç ¶
Ġd ont
Field Value
ĠINT ER
Go al
O WN
S IT
__ ':
EN R
ĠUn ix
En gl
! '
ĠTYPE ID
ĠGr adient
Ġhdd Log
P REF
Ġmark ers
Ġinsert ion
RO ME
nave lem
CRYP TO
trans lator
Ġhel ps
th an
sy mp
MON ITOR
ĠDEC LARE
MO DI
å¿ ĥ
state ments
api Param
ĊĊĊĊ ĊĊ
cent ral
Ġsupp ly
C ls
Ġ- (
CL USTER
Ġge m
get Start
02 3
Ġglobal s
get Row
Ġcl oned
S ocial
ero us
ile ged
sd s
åĪĹ è¡¨
35 1
ĠS park
0000 0100
inal ity
DEP END
Ġdif fer
Could n
Y EAR
Un used
Ġsc atter
From File
ĠID irect
ĠT P
VIS ION
Ġcancel led
a Ã§Ã£o
S ampler
a dev
Service Provider
deg ree
A ux
d ensity
an other
48 1
Ġo z
li ss
LOG GER
ĠT G
Ġcon str
x cd
st an
Ġs lash
ĠPri mary
Hint s
Ð ľ
PC IE
x CC
sub tree
S vg
Ð¼ ÐµÐ½
B K
Ġch k
send Message
ĠD OT
Ġout going
ĊĊĉ ĠĠĠĠĠĠĠĠĠĠĠ
$ ('.
> '.
out e
Sp read
dat al
oll ar
partition s
à® ©
M CS
Ġd os
Ġb igger
d rain
1 00000
ĠLI KE
g pp
is String
Ġw pa
Ġx t
pol ling
o am
st y
ĠE igen
me mo
sub dir
Ġ% -
ĠSh im
IW USR
P ie
am en
åĪ ł
SUPPORT S
ĠI I
ĠSyntax Kind
Ġ---------------------------------------------------------------- ----------------
Ġqp np
Ġ Ċĉĉĉĉĉ
CM ake
PHP Unit
x de
75 2
Ġ'* '
tf m
8 10
A wait
in visible
MS R
Ġpro x
Ġun register
ĠR ate
8 192
f wd
ç ·
PE AT
ĠB er
Ġ` %
Un marshaller
Ph y
Ġr ng
ĠR TL
20 48
Ġ7 1
Ġtx n
Sn ippet
Ġrequire ment
59 5
Ñģ Ð¿
re z
ĠD el
Ġle arning
L and
64 00
Ġcon struction
Ġpot entially
T Z
With in
soft c
Att ached
R N
ac cur
ens us
R and
Ġinter mediate
UI Kit
v codec
57 14
=" __
Ġ<? =
í Ĭ
âĢĶ âĢĶ
ãģ Ĥ
e lectron
ĠD AT
Ĩ Ĵ
Ġca ught
Object ive
ham crest
s uppress
Ġ Î±
ĠQ ModelIndex
Ġw i
Install er
ro te
Ġes pec
Ġ: -
ĠElement s
1111 1111
dddd dd
Ġ# %
54 5
< _
ig a
et ary
St and
esc aped
Ġlo ops
er p
(" @
new Builder
Ġhd mi
std in
SV C
Ġ\ ""
Read ing
ĠF re
Ġy aml
MO RE
ĠMac ro
get Service
Ġ199 8
Ġv ary
iv ar
ĠA ut
55 9
78 7
Ġd ash
ĠS hell
Ġstr m
n arrow
as ures
ĠðŁĳ ¼</
h ssf
ĠRes olve
ĠTag s
èĬĤ çĤ¹
ne ar
Ġin strument
Re peated
translation s
Ġpre diction
D Q
as a
ool down
ĠK B
Ġp Item
ON CE
g old
bu y
Ġperform s
ĠPACK ET
cal lable
Pro files
trans actions
ĠHAND LE
ms i
ĠComp osite
cap able
4 24
b roker
à¥ ģ
anim ated
ĠF O
Ġ"- "
ef x
Method Info
p list
Time Zone
ĠRES ULT
Ġoff line
ĠMI SSING
LAY OUT
H ARD
Ġloc ally
lo st
Ġm enus
com bin
! ');
p R
Ġcol on
æķ ¸
/ ****************
I IR
ĊĠĠĠĠĠĠĠĠ ĊĠĠĠĠĠĠĠĠĠĠĠĠĠĠĠ
Ġfor ced
39 1
V ED
IN FIN
Ġ%} </
Ġpy test
M ATH
r ift
lab or
à¦ ®
Ġnib h
re tries
C ERT
N at
Ġme s
File system
Min us
par sing
IZ ONT
Dec ision
v u
66 5
Order By
cour ses
> ")
Ġguarante e
D eriv
Ġm igrate
sign up
exp onent
uzz y
Ġconcat en
N g
HO O
ĠEL F
DA MAGE
uby te
St ory
DataFrame Column
C lo
Ġ! _
=' .$
mov able
submenu item
ĠAlgorith m
v q
Ġ iz
br ush
ä¸ ¤
In verse
ĠE T
Ex panded
ĠRe trieves
54 9
Q I
ex perimental
ual i
88 2
CUR SOR
{ @
Ġbox es
E PERM
Ċ ĊĠĠĠĠĠĠĠĠĠĠĠĠĠĠĠĠĠ
mer ged
Work Item
M illiseconds
AB I
Assert ions
sc enario
Ġë °
ĠB enchmark
ME TR
direct ories
REGE X
Ġcom m
m rq
p reempt
ĠĠĠĠĠĠĠĠĠĠĠĠĠĠĠĠĠĠĠĠĠĠĠĠĠĠĠĠĠĠĠĠĠĠĠĠĠĠĠĠĠĠĠĠĠĠĠĠĠĠĠĠĠĠĠĠĠĠĠĠĠĠĠĠ ĠĠĠĠĠĠĠĠĠĠĠĠĠĠĠĠĠĠĠĠĠĠĠĠĠĠĠĠĠĠĠĠĠĠĠĠĠĠĠĠĠĠĠĠĠĠĠĠĠĠĠĠĠĠĠĠĠĠĠĠĠĠĠĠ
inf late
DE PRECATED
ĊĠĠ ĉ
AG ENT
éĿ ŀ
O WNER
ĠPy Err
à °
in coming
bo b
5 37
Face s
j unction
write Int
æķ ´
ĠFORM AT
Ġsome one
ĠWh ere
S pi
Ġf requ
Test Method
èī ²
ke ley
MP P
59 6
Ġc oun
=' +
mark et
ĠCh ain
55 6
03 8
Ġm l
now rap
Ġequal ity
slide show
ere al
uro pe
ier i
Ġappro ach
unge on
ĠB ITS
Ġdec ision
åĥ ı
ĠS PR
art in
ĠR AD
End Point
s entry
In coming
name of
P s
ĠCon current
enc ryption
aren cy
le w
à¦ ¸
ĠUP nP
ĠA CK
IZONT AL
r er
Log ged
Ġ9 2
Ġaccess ing
éģ ĵ
Does Not
x dc
T ap
ac ao
Ġde tach
ĠRE SERVED
åķ Ĩ
d word
get ID
ĠÐ ³
ital ize
m label
Ġad vert
de coded
av y
Ġ Ø¯
Ġre moval
ri bb
cf b
Box Layout
ĠNe ue
A FE
r ho
ON A
x DB
B er
get Selection
ĠI BM
To C
Ġlet s
Distribut ed
and as
thumb s
< $
Ġr am
Ġex perience
} ".
Lo ss
\": \"
ex tr
ac i
AT ES
To ast
SA MPL
+ </
P itch
× ¤
ÏĢ Î¿
ĊĠĠĠĠ Ċ
com ma
us a
ĠV oid
Line Number
Ã¡ l
x EE
Ġ' ='
With Context
Ġ32 0
car bon
EN CODING
implement s
Ġm ol
get Base
Char acters
hw nd
FE ED
----------- */
R s
(" &
sy ms
] ++;
Ġre write
sp atial
Ġ? ,
Load Balancer
×ķ× ª
ĠATTR IBUTE
X L
Ġstream ing
S un
49 8
MG MT
Rob oto
ĠLinked List
00 80
(" ")
pre set
99 6
Comp oser
44 7
X S
\ $
ĠÐ »
åģ ļ
m ips
Ã ŀ
an ode
collect or
Ġs ays
ir s
ĠWh ile
get Active
sub tract
fe ssion
Ġà¤ ¸
p ulse
39 3
de queue
x ad
get Length
OP CODE
(* (
áĢ Ħ
ĠAss ume
ĠTop ic
ome tric
u w
M N
ament o
Ġwait For
month s
çĬ¶ æĢģ
T d
get Location
and a
ãģ £
Ġrep lica
Intern ational
Ġ_ )
mi um
ĠFLA G
4 0000
out il
Red is
g ls
ĠAD DR
W ide
is hes
50 3
ĠSt ats
> _
> >(
BLA CK
+ $
Ġappear ing
B t
G IT
ad as
LINE AR
rap id
scri bers
S ector
n ice
Sc enario
l z
Ġde livery
Ref Count
Ġwant ed
ı ľ
Ġproperty Name
ĠAL TER
Ġ ĊĠĠĠĠĠĠ
75 9
v io
ct est
ĠC RM
ĠG U
88 4
ĠLog ical
s ax
SNAP SHOT
get E
offset of
prop ag
v box
q ode
se gs
TI P
CA DE
is se
Ġexp ire
æĮ ī
Or Builder
lick r
æī ĵ
pm ic
ç» Ļ
c db
C CE
b idi
ĠL AB
66 2
Î ¸
EOP NOTSUPP
" });
ĠO ffic
xa e
ĠB io
~ /
ĠF lush
GE O
o sp
Ġgre at
ĠD IR
Ġil legal
u D
Ġf rozen
sw t
v im
TW O
K S
Ġindic ated
ĊĠĠĠĠĠĠĠĠĠĠ ĊĠĠĠĠĠĠĠĠĠ
% {
P REFER
Ġtr uncate
IM UM
Hi light
ĉĉ Ġ
ul ates
38 2
zz le
ĠStd lib
Pro x
Res olved
N MS
UN SUPPORTED
work ers
pl its
ĠFor ward
Play back
99 4
last IndexOf
ĠComp uter
yyv sp
Ġh its
ĠQ R
Ġinter act
ĠValid ator
è¯· æ±Ĥ
ĠD ROP
éĩ ĳ
Ġpag ination
folder s
ĠG LE
progress ive
Ġindex Of
SM ART
Rep licas
ÑĤ Ð°
mC SB
Ġ}) ();
Tri p
åĪł éĻ¤
*) "
ĠCre ating
is Active
ĠA BS
Ð°ÑĤ Ð¸
s now
Lat ency
74 9
Ġme ss
Ġc apt
ent y
," %
nl m
èĢ ĥ
q e
ĠS ound
ĠSH OW
T BL
de identifier
ĠImplement s
rade on
get Boolean
g lo
ĠT ouch
')) );
Bus y
ĠTool kit
éĶĻ è¯¯
3 19
res co
N W
Ex periment
read s
ãĤ ·
Background Color
">( <
Illegal ArgumentException
E CC
Ġ& -
ãģ ı
J AX
Ġb w
ä¸ ²
Action Bar
06 2
PER IPH
Jo urnal
[ <
set Size
Accept ed
ĠD P
Ġinter preter
he ld
under score
get AbsolutePath
?? ??
aph ore
STAND ARD
l j
ĠF IR
array s
09 0
Ġ Ñį
Ġre tries
ĠS pring
89 60
æĥ ³
loc ate
strn cpy
åĪ «
Ġe qu
Ġ'_ '
en ix
err it
================ ==
Ġà¦ ķ
DESCRIPT OR
Ġband width
% '
Ch apter
Ġb ash
Ġb ond
@ $(
h x
x DE
æ »
iv ial
88 3
() *
ĠD i
Ġde gree
quot es
Ġsuper Class
pe ak
pro filer
be e
air s
de velopers
oo led
ex clusive
Ġr isk
G V
CB C
ĠQ Action
For Testing
ĠSW T
ra f
Ġel t
Ġquick ly
G PKG
W CD
Ġg pu
Ġprint ing
J ohn
rot ated
" {
R ol
Ġs ites
000000 40
ĠReg isters
G IS
f ord
STR IP
aj e
áĥ Ķ
66 9
I SS
Un i
^^ ^^
E mp
ĠD up
Ġrecord ing
s ix
Ġin tr
base line
CONFIG URATION
Ġ( +
é ¦
Text Node
Ġsp acing
/' .$
ĠD H
process ors
Ġ32 768
8 50
Ġp ins
Ġ$ ("
Ġver ified
samp ler
p seudo
Ġin active
am an
ĠF LOAT
ĠUp dated
E thernet
de ath
un ordered
map red
Ġtri angle
hint s
1 0000000
L N
p ip
ml x
Ġv lan
Ġ2 20
y te
lin der
Ġdec ide
ru it
Time Stamp
method Name
78 6
String To
74 5
ss on
33 1
std int
ĠR adio
Ġconfirm ations
Cur r
mb H
ÑĤ ÑĮ
MC U
og g
ĊĠĠĠĠĠĠ ĊĠĠĠĠĊĠĠĠ
k ick
SH AD
c alloc
base s
Com ma
ĠAb ort
ul um
ĠFix es
gr ap
SO LE
ĠPM IC
../../../../ ../
new line
SL P
watch dog
x CD
à¸ ±
Ġtrans ient
GL int
ec b
ĊĠĠĠĠĠĠĠĠĠĠĠĠĠĠĠĠĠĠĠĠ ĊĠĠĠĠĠĠĠĠĠĠĠĠĠĠĠ
áĢ Ń
ighb our
', ['
Ġg round
")) {
sort ing
gre ater
SEG MENT
Ġperform ing
Ġst retch
Ġprint ln
n sec
all Errs
80 64
Thread Pool
sing ular
ref count
Ġex clusive
Ġpan ic
Ġf ib
29 3
glyph icons
ĠDIST INCT
U su
en et
gs i
Column Name
We ights
ĠP D
MP T
áĢ Ģ
SQL ITE
multi part
ĠCON STRUCTOR
Sp inner
ĠR IGHT
o j
Ĳ ľ
Ġprep end
ĠP at
Ġnav igate
B an
sd c
ĠAU DIO
Ġp ic
ĠA void
'] =
pri or
b rev
Ã Ŀ
Cast Spell
ref ptr
Ġbuf len
Ġinstant iate
per ms
Ġfile Path
ia lect
Simple Name
Ġ) </
fab ric
synchron ized
ht c
Gu ild
ĊĠĠĠĠĠĠĠĠĠĠĠĠ ĊĠĠĠĠĠĠĠĠ
ĠGame Object
ĠF inal
99 2
ĠÐ µ
P k
vol ve
set Item
tmp dir
L PC
Ġv f
Ġq w
Engl ish
co w
bo k
ph otos
CON STR
ĊĠĠĠĠĠĠĠĠĠĠĠĠĠĠĠĠĠĠĠĠĠĠĠĠĠĠĠĠĠĠĠĠĠĠĠĠĠĠĠĠĠĠĠĠĠĠĠĠĠĠĠĠĠĠĠĠ Ġ
C AS
run s
Ġloc ate
çĻ »
SPECI AL
ĠS olution
der iv
Ġar riv
ÑĢÐµ Ñģ
Property Changed
GR ID
Ġa cl
Part icipant
cred s
ach er
G ender
NOT IFICATION
oxy gen
ç ¦
čĊĠĠĠĠĠĠĠĠĠĠĠĠ čĊĠĠĠĠĠĠĠĠĠĠĠ
ĠSPD X
T ube
__ </
áĢ ķ
ab spath
HAL F
la pping
get Full
Ġn y
Pro pel
mod er
M SI
td c
ns f
sol ve
MACH INE
T AP
q h
Ġ---------------------------------------------------------------- ------
lin ing
Ġwas n
ĠEX PORTS
overn ment
Ġlet ters
sum ers
! ='
g dx
n lp
ĠC OR
Ġnot ation
Mut ation
Space s
äºĭ ä»¶
set String
ĠAn alysis
get Error
ĠIgn ite
Ġex periment
xe a
rep lay
'} [
b el
ip pets
56 8
45 7
Ġmat rices
S ch
Struct s
FOR WARD
MI I
Multip lier
Ġb ubble
ac f
assert Not
09 8
ĠCOL UMN
m ss
bb b
c rt
DU MMY
Ġk ube
Ġpy lint
IBUT ES
f ed
am r
Cont rollers
cc a
HE AP
OD M
Ð¸ÑĤ Ðµ
Ġsuc ceed
æĶ¯ æĮģ
Ġthe ta
ĠV R
H RESULT
Al so
ĠComponent s
éĹ® é¢ĺ
Ġ" <<
RO WS
next Sibling
Reg ions
Host s
schedule d
4 10
ble ms
Ġvis ited
ĠSEG MENT
De crypt
3 16
es ult
Ġpoint ing
Sp atial
e lems
Ġ{ #
dd l
build ing
Ġe Z
code gen
Web Socket
h mac
_ $
e ic
Tr an
v ements
> ).
Ġr sp
') ],
index ed
[] (
pa used
ID R
" &
N AV
Ġw cd
cop ies
}} /
{} {
3 80
f ieri
B RAN
Ġs pr
Ġz a
lace ment
b pm
Con versation
èµ Ħ
MI SSING
Parse Exception
dustr y
Pe ople
Ġt u
Ġs ch
ma iler
Ġstr chr
03 5
ãĤ °
Asc ii
Service Response
des ired
yle ft
à¹Ģ à¸
st orm
TRAN SFER
Ġleg al
Ġsin on
p key
Ġbu gs
Instance Id
Set Name
Ġbreak s
MO B
Ġtrans lated
(" //
ĠM ASK
T od
Ġw b
Ġr Ã©
Or ig
Ġ" "),
sub stit
Ġl cd
Ġg s
ther mal
mi i
S CTP
g lass
Ø µ
Partition s
b or
#### ###
28 1
b urst
ou ve
Ġloc ator
ĠC od
Ġassert Null
su fficient
Ġj ar
Ġm iss
ĠM PU
ĠĠĠĠĠĠĠĠĠĠĠĠĠĠĠĠĠĠĠĠĠĠĠĠĠĠĠĠĠĠĠĠ ĠĠĠĠĠĠĠĠĠĠĠĠĠĠ
DT S
ĠLogger Factory
Mi ssion
Ġm irror
" }}
55 4
PART ITION
secut ive
pre sto
Get Item
çº §
ĠG mbH
Ġ` "
56 9
åĨ į
Ġs implify
åħĥ ç´ł
D AG
arch ives
Ġmult icast
enumer able
IN FORMATION
ĠL PC
ĠMap s
P id
Ġ Ïĥ
ĠB MA
cmd line
ĠC AS
ĠD iff
Ġ10 9
Do or
M illi
out s
Ġinter polation
Ã¶ r
pars ers
SI F
Te ch
execut able
ĠVER IFY
Ġ1 13
Test Suite
Or Create
ĠQt Gui
Ġo t
read Int
P ow
E Object
vol t
Ġmov ie
): </
ĠRE MOVE
F ly
UB Y
av i
Ġget Data
f riends
Get Spell
SH OP
Font Size
Av g
ĠTemplate s
e j
b untu
æŃ ¥
Ġc rop
ĠSpec ific
Ġs on
ĠB N
Ġch apter
Ġdig ital
License d
ĠPri mitive
l ift
Ġb an
bu il
cy c
Ġtre es
ĠA rc
Ġident ified
b cb
æ Ł
N ATIVE
in ser
ĠL D
E s
iface s
ĠShort cut
co g
ĠÐ¸ Ð·
ĠWork er
f lo
in strument
Ġt earDown
ä¸ ļ
Ġbound aries
ĠArt icle
Ġag gregation
mouse down
Ġ1 26
2 100
ort ex
p ace
ĠV ert
åĲ «
plan es
data Tables
En velope
Ġgr p
Linked List
ĊĠĠĠĠĠĠĠĠĠĠĊĠĠĠĠĠĠĠĠĠĠĠĠĉĠĠĠĠĠĠĠĠĠĠĠĠĠĠĠĠĠĠĠĠĠ ĊĠĠĠĠĠĠĠĠĠĠĠĠĠĠĊĠĠĠĠĠĠĠĠĠĠĠĠ
A H
de liver
t st
ĠS prite
to List
Ġk an
\- \_\-
ĠG ood
Ġass oc
Tree View
In side
Ex if
Ġun re
3 13
77 9
Ġdisplay s
cv s
ĠB log
x ca
Ġm andatory
ĠC ent
red hat
Ġview er
Ġp si
os a
press ure
isp an
b box
et ag
ĠB IG
fo od
ĠImp ro
79 7
Ne ighbor
Ġtile s
stub s
Ġre ly
ĠIn voke
Pre vent
B ER
Ġp icker
li ant
Ġ3 000
Ġj a
oul li
03 1
è Ń
IDENT IFIER
d ense
ĊĠĠĠĠĠĠĠĠĠĠĠĠĠĠĠĠĠĠĠĠĠĠĠĠ ĊĠĠĠĠĠĠĠĠĠĠĠĠĠĠĠĠĠĠĠĠĠĠĠ
Ġim ag
å¸ ĥ
Ġa ui
Ġprogram ming
Ġmono space
D yn
to ast
Ã¤ Ã¤
st aging
owner Document
comp ound
99 7
COUN TRY
block size
SP A
j er
Ġm usic
Ġne ighbor
du k
DIR S
Ġplay ing
ĠP B
ĠP o
SS P
Ġx si
Ġend ing
ĠOr g
Ġst ops
)/ (
N FS
Ġdomain s
Ġmeasure ment
ĠS EEK
um ulative
Ġg arbage
Ġget User
Ġu char
Check ing
bert a
ĠPR INT
Se p
sm ooth
L ater
ut y
ne o
k on
IN AL
De ath
ĠPlay back
set Query
d av
TE AM
In finity
ome ter
exist ent
x AC
Ġsub tract
ĠN A
GLE W
Proc Address
E AGAIN
ĠD ot
spe aker
B AL
all s
re commended
al ong
FO S
ĠPAR SER
ĠJav ascript
Run With
T ween
Layout Params
<< (
auth enticate
ĠEn abled
ĊĠ ĊĠ
Ġr tc
Ġstd Class
EE PROM
ales ce
I Enumerable
SE CRET
M ine
Ġsem antic
Test Utils
Protocol s
ĠPart ition
è ĭ
Ġsh ut
Ġturn s
ĠPl ant
Ġm ar
ri an
em itter
ĠB CM
S up
Ġn h
Ġlower case
Config urations
Inter est
item id
åĲ ¯
è ¼
Ġde serialize
å¹ ³
Pag ination
oss ip
ic sk
set Max
ĠU R
Ġtop Level
ĠÃ ¥
ĠResult s
L ost
S ales
b erry
ĠSh ift
DE ON
/**************************************************************************** *
Ġadd on
ĠGL double
å½ ¢
Ġmov ement
e asing
Ġc ms
la cing
Ġ' ^
alan cing
5 44
g ive
== (
get Color
ĠNot Implemented
ÃŃ t
ĠMan ual
čĊčĊĠĠĠĠ čĊčĊĠĠĠĠ
Ġdispatch er
5 40
ĠEx press
37 2
Bounding Box
000000 80
ĠSER IAL
ar ded
C SD
", ,,
Ġ8 127
ate ll
attrib s
ĠA pr
Ġaccord ance
out ine
Ġsyn aptics
W IDE
Ġun ix
F ade
áĥĺ áĥ
> -->
In dividual
ĠI DE
param ref
log ue
čĊĠĠĠĠ čĊĠĠĠĠ
pa get
highlight er
3 32
=' ../
55 7
Ġhist ogram
ĠT IFF
Ġany more
phys ics
Ġabort ed
+ \
Greater Than
int val
separ ated
ru ption
B UR
Q OS
Col l
ĠRef resh
B rows
av link
mask ed
ĠRE SET
F light
0 32
x large
d ip
St encil
ul ating
/* ----------------
Sol id
b ab
Ġm ot
ne y
Ġinter active
REA CHED
Ġn ec
é Į
nb r
Ġinit ializing
Ġmix er
SPHINX BUILD
order By
Ðµ ÑģÑĤ
h uman
| .
Ġì Ĺ
éķ ¿
State ments
77 4
light ly
po ke
pent aho
================================ ========================
ĠF ore
enum s
p G
59 8
Access ibility
sys log
è¿ ŀ
Ġadjust ed
Ċĉĉ ĠĠĠĠĠĠĠĠĠĠĠ
Packet s
æ· »åĬł
c st
Ġ( .
PE ER
ne ighbor
BAS IC
ĠC ASE
ìĬ ¤
Ġm map
set Icon
Ġl st
init data
ãĢ Ĳ
L W
im ode
AR P
(" </
ĠM a
dat at
ĠMessage Box
ĠSupport ed
c ats
é ©
Ġprob ability
ĠText View
Ġstrto lower
N b
in ations
Ġb ib
obj c
ĠSD Value
he lf
:: </
.* ?
wl c
ap ing
ĠM ultip
INCLUDE S
ug o
ãĢ ĳ
k mem
Ġi ov
ĠU F
Ġign oring
ĠDO UBLE
Ġ( ---------------
Ġend for
Ġtime val
ï»¿ //
ĠI op
Log Level
59 4
Socket Address
Ġ à²
Ġreturn Value
af a
ĠREG ISTER
z eb
/** <
book ing
Break point
S in
im x
Ġ"$ $
Ġk mem
Ġwe apon
ĠDis k
get B
ens io
eb x
ĠCompar ator
p index
Report Error
A sk
z c
res ol
Ġc lusters
Ġli m
Some thing
/ #{
j l
ĠI p
Part Kind
ĊĠĠĠĠĠĠĠĠ ĊĊĠĠĠĠĠĠĠĠ
UD A
ĠTime Span
Ens ure
Ġu dp
ĠLIN UX
lo dash
Ġst m
ĠL ANG
Ġback ing
Ġident ifiers
Ġcoefficient s
' };
æ Ĥ¨
Ġk s
S lug
T riv
ĠS ym
Ġ` [
EX YNOS
Ġtri p
ë ı
ob solete
à¤ ¦
activ em
d addr
Ġ1 75
Ph rase
ĠEN DIF
Ġrespect ively
Ġt ill
ĠE st
Ġ(--------------- )
Ï ĩ
Ġcon verts
Ph i
MIC RO
Ġlic ensing
Ġ REFERENCES
rid ing
VARI ANT
íĬ ¸
Not ice
re pe
Ġb ail
ĠS peed
Ġexp ansion
ĠAv ailable
c ql
Ġd lg
err s
ep isode
Ġst amp
gs ub
Temp erature
M ixed
fin ispan
ab uf
Ġun link
inject or
ĠQ ByteArray
Ġt k
Ġqu ad
ĠCH AN
F mt
p ills
Ġdatabase s
Ġanim ations
Rew rite
" $
ĠV P
PR T
ĠDO CUMENT
ĠÐ¿ ÑĢÐ¸
good s
69 7
ĠTrans mit
cnt l
' `
ĠC ourse
au di
f ec
ĠF lat
cal ib
; (
Ġp dev
Ġs uppress
() "><
ÑĪ Ð¸
V FS
/ ).
J AVA
čĊ čĊčĊĠĠĠ
D URATION
Ġtrans formed
Ġus ize
æłĩ çŃ¾
Ġut iliz
redi ents
W ildcard
Ġ~ =
Ġd ensity
}} ',
Ġcorrespon d
Ġp ll
CL IP
MM ON
B IO
J A
v lc
=== //
T OR
Ġ199 7
å ¡
Ġs mp
Ġh c
B ORDER
pc b
Ġ× Ĳ
ĠMin imum
USER NAME
ert ext
RE PEAT
Ġ10 7
Nav igator
Ġsem antics
config ured
cm nd
Ġm ention
ĠP OS
IP Address
ARGU MENT
c ron
f close
Query Builder
Web View
F loor
Require ment
G AM
G LIB
ap im
error Message
Ġp erspective
Class ifier
03 6
ĊĠĠĠĠĠĠĠĠĠĠ ĊĠĠĠĠĠĠĠĠĠĠĠ
auto load
Ġb box
AG C
Ġbas ename
Ġwork around
mer ica
å® ¶
------------ */
s ay
x AD
m fc
ĠH DA
Al ter
Ġmail box
éª Į
EN E
over write
LD FLAGS
out come
diag ram
F H
F arm
report ing
M enus
jo y
tun e
5 25
l ens
čĊčĊ čĊč
ĠCont ain
ĠF ORE
im i
Fetch er
Ð°Ð¹ Ð»
t ld
E MB
ut a
WR IT
d ire
k ing
C assandra
will Return
åĽ ½
Par agraph
gra ded
ĠW rapper
set Status
($ {
Index er
get Input
ĠM F
ĠG D
00000000 0
ĠZ ip
ga q
Ġpod s
Ġaccur acy
} ))
// ------------------------------------------------
ĠAl ternatively
ç« ĭ
ĠF older
ĠJ Panel
Ġprevent s
F ALL
Ġz eros
ffff f
Ã§ Ãµes
Ġdat atype
vo y
adr atic
members hip
sur f
coff ee
T TY
d ag
session Id
Ġ ÙĪ
Ġp ul
Ġ' .',
get Title
Ġe asing
ĠD iag
Ġh aven
Ġover written
Q UI
Ġbreak point
Ġ2 048
âĢĵâĢĵ âĢĵâĢĵ
ë ł
ĠTh us
Blue tooth
en i
Q Graphics
Cla mp
H ero
:" %
Launch er
x AA
000 6
iw i
O VR
ĠA lex
05 8
Face book
Ġc andidates
Image Path
Ġfolder s
add ir
F ocused
RO C
ar ched
ĠInst alled
BRID GE
N AN
ĠI o
ja sper
lcd c
S l
n pos
ĠF ri
inet ic
åºĶ çĶ¨
j h
è¯ ¢
d cl
r ams
lev ation
iet f
ĠSyn opsis
D SS
Ð Ĺ
Ġ***************************************************************************** */
ALLOW ED
g is
() \
Context s
v port
Ġa k
Ġcaref ul
Format ted
ĠProcess or
cl if
> (&
F d
th ere
ch mod
ĠT ex
ìĿ Ģ
ĠI sl
ĠAssembly Version
in n
ĠÐ¾ Ð±
æ £
Ġf ich
new command
ignore d
ĠS rc
Min ute
inv ocation
__ ));
ĠGO OGLE
ĠT ue
Ġ$ <
ĠVAR I
Deser ialize
en de
G AN
ĠI Vs
Ġunder stand
Exp iration
Export er
COMPI LER
Ġn an
R ails
Ġ}} ">{{
Ġcompar ator
Data Contract
own ed
PR IO
IZ ONA
art z
H ard
K R
e quation
data Table
A mb
pix buf
Ġbig int
EN TED
Ġpath name
y ang
Ġt imers
ern oulli
, $(
ĠC LE
Ä «
ĠO f
U rb
e or
STRU CTION
sch ool
ĠSymbolDisplay PartKind
imon ial
il ers
Ġd iagnostics
ĠA G
Require ments
le ading
ĠF X
Ġk object
an cial
break point
O CI
on click
MID I
è¾ĵ åħ¥
t inymce
(' {
JNI Env
str cat
TR AP
fancy box
v js
W a
get As
ĠP ull
Se quential
()); </
Ġnon ce
cr lf
dialog s
An cestor
orph ic
ãĤ Ĥ
Min i
Ap pearance
b ounded
h ab
ul ations
nav igate
lo ff
Ġ> &#
FO C
Ġdb g
Ġoptim ized
style d
ãĥ ĸ
ĠWh ite
99 5
Ġsy mlink
G W
Q C
Ïĥ Î·
f ies
per cpu
ĠB LA
Ġr ational
No Such
pag ing
ĠExp and
Dig ital
G SL
end ants
Ġurl lib
ĠMe asure
Tre es
x n
OR B
Ġnot ified
dev el
mat ure
ĠReg istry
Append Line
Ġhappen ed
ĠW ed
æĽ´ æĸ°
d ont
s qu
Ġ{ {{
ĠV ol
ĠT cl
roll ing
Ġb und
ĠM SR
flex box
x CE
ĠB oard
ĠPRO TO
DOWN LOAD
ĠDIS ABLE
r ts
PC R
(" *
ĠGener ates
express ions
B ut
b irth
ç Ŀ
ĠBack ground
mac ros
re search
(( __
Ġremain der
A sm
E H
Ġ10 6
æĪĲ åĬŁ
4 54
:: {
Ġms gs
fav or
() /
op end
ĠS Z
Ġgener ally
COVER Y
c iv
Ġstart Index
Integer Field
e de
x CA
ap ons
000 5
################ ########
49 5
ĠTo String
Ġc ube
SE P
ll x
ĠRed is
UG H
]) +
ĊĠĠĠĠĠĠĠĠĠĠĠĠĠĠĠĠĠĠĠĠ ĊĠĠĠĠĠĠĠĠĠĠĠĠĠĠĠĠĠĠĠĠĠĠĠ
ĠC md
ag ram
ual berta
Pre parer
Item Stack
59 7
Y G
ĠF LD
white space
mood le
Ġa a
Comp uter
Ġm n
ĊĠĠĠĠĠĠĠĠĠĠĠĠĠĠĠĠĠĠĠĠĠĠĠĠ ĊĠĠĠĠĠĠĠĠĠĠĠĠĠĠĠĠĠĠĠĠĠĠĠĠ
Ġrestriction s
, )
F K
Ġ'" '
à¤ Ł
Ð¸ Ð»
Effect ive
A ug
is Not
ir k
Ġ ][
re claim
bu dget
ĠP ayment
AR ROW
v ue
Ġ` -
ĠMock ito
c ust
ĠH old
ĠEn code
ĠJ s
EN CRYPT
from Now
oto pe
xB D
! )
la c
Ġm h
DI RECTION
Ġgr am
æĿ ĥ
sm oothing
Co q
å°± æĺ¯
Ġg ender
Al gebra
cr ash
áĥĶ áĥ
G pu
N IL
æł ¹
diag nost
CRE D
Ġ}} ">
æĭ ©
Z a
En crypted
FIN AL
qg is
ff i
Ġedit able
HO OK
co e
ĠAd vanced
N ick
g zip
int s
li hood
ĠR TP
Ġq s
OnSearch Field
BU CK
ĠOffic ial
Ġc id
api Version
robo lectric
" -
FA KE
ĠTo ast
greg ated
Ġt olerance
ĠW CD
Ġdraw n
ê³ ł
en umber
oo le
à§ ģ
ĠCHAR ACTER
Ġconnect ing
Ġà¤ ª
stack ed
Ġtuple s
ĠNU MBER
q up
Î ´
act x
Ġst ay
aver se
* =
åĪ ©
ĠLog ging
buil ddir
Ġs me
OT A
CC M
vo ices
ĠInter val
Interrupt edException
set Selected
ĠW i
ĠR ename
SER VE
çĶ »
olid ay
ĉ Ċĉĉ
Re lay
ĠZ C
;; ;;
ĠGtk Widget
1 000000
Ġfor Each
err al
Ġt ol
al ia
he art
Ġ< %
ĠIn crement
Ġenumer ation
cop yleft
mp c
ĠS ie
Con tribut
éĢī æĭ©
Less Than
",,, ,,,
S ending
r as
Re trieve
Cal ib
p ct
Par m
ĠJ et
75 8
dist inct
ord ova
ĠGLE W
D er
um s
Col lapse
Ġtemplate Url
Ġauth enticated
m ui
is Enabled
atom s
TL R
Ġum a
čĊĉ ĠĠĠĠĠĠĠ
over lap
æĺ ĵ
oct et
get Page
Ġtra verse
79 5
Ġchain ed
Mime Type
Ġtopo logy
b ow
u h
% )
get Body
Ċĉĉĉĉ Ċĉĉ
background Color
ĠLO AD
Ġsys ctl
ĠV k
Sim ulation
reference d
C e
ge l
Ġsub classes
= ?
() ",
S andbox
on Error
um in
base Url
ÑĤ Ð¾
N an
ST O
08 9
MI PI
Ins pection
most ly
quis ition
t weet
Ġd ur
ĠItem Stack
Tip o
cccc cc
Ġ// ----------------------------------------------------------------
Ġal gorithms
rss i
in ery
Open ed
xB C
H w
Ġclo ses
m ipi
ĠD ict
base url
Ġsent ence
) "><!--
4 64
de al
assert In
hig hest
ĠH ex
ĠR ound
82 17
o ft
Ã Ļ
Ġs andbox
ĠA PR
QU AD
`. `
Compar er
d of
to string
06 8
Ġav atar
Ġdown loaded
game s
Wrapped Object
pp os
v ch
o op
str ftime
ist ing
Ġtime spec
S ensitive
get Sub
Ġht ons
Ġquot ed
De fines
ĠR D
oper ators
ĠNo Hilight
THREAD S
car rier
Ġbucket s
ĠN D
ç® Ģ
cycler View
ĠRe search
power ed
friend ly
Ġr val
com bined
Ġ(_ ("
ĠT ell
ĠN M
ĠBase d
Ġ Îµ
oint ment
uth y
Ġty ping
ĠM ass
05 6
write back
For Type
SU ITE
ĠâĢ ĺ
è¨ Ģ
Ġl ifecycle
local Storage
ron ym
kar ma
tot ime
Ġexclude d
With Arguments
Ġcla mp
Compiler Services
a ug
ul int
ĊĠĠĠĠĠĠĠĠĠĠĠĠĠĠĠĠĠĠĠĠĠĠĠĠ ĊĠĠĠĠĠĠĠĠĠĠĠĠĠĠĠĠĠĠĠĠĠĠĠĠĠĠĠ
WORD S
W STR
la w
tra ffic
S park
Ġf ifo
Ġ} ],
ĠQ MessageBox
ĠKey s
Ġ***************************************************************** ****
b ird
asp x
WireFormat Lite
0 60
Ġr is
55 8
Ġf ft
add to
78 3
R d
CT S
ili o
la red
Ġsub routine
ë ©
Ġset Value
cs rf
ĠGu illaume
} ">
cur ring
Det ach
Tool kit
Cre ative
c ategor
ĠO wner
RO SS
HE AL
particle s
M ERCHANTABILITY
get Children
Error Handler
Ġexp iration
ul ators
ĠRe member
Ġcustom ize
Section s
ĠL C
ament e
isDebug Enabled
g imple
ĊĠĠĠĠĠĠĠĠĠĠĠĠĠĠĠĠĠĠĠĠĠĠĠĠĠĠĠĠĠĠĠĠĠĠĠĠĠĠĠĠĠĠĠĠĠĠĠĠĠĠĠĠĠĠĠĠ ĠĠ
Ġrecurs ively
4 32
ur k
Source File
ĠSec ure
de activate
TUR NS
orm ap
ĠF ormal
79 6
ĠGe cko
ĠTy ped
a ure
č ĊĠĠĠĠĠĠĠĠĠĠĠĠĠĠĠĠĠĠĠĠĠĠĠĠ
| --------------------------------------------------------------------------
ãĤ ½
<<<<<<<< <<<<
C os
Ġ REF
ĠS lot
E Class
net link
impl ified
B id
K EL
Ġst y
ak t
xA F
SE S
sh ost
Ġcons istency
Ġsp ot
65 7
Ø± ÙĪ
ãĤ¤ ãĥ³
co ol
Ġo mp
æĸ¹ å¼ı
48 7
Http Foundation
protocol s
E asy
K BUILD
Û ķ
ãģĹãģ¾ ãģĻ
activem q
nav row
Ġorder s
çīĪ æľ¬
ĠB en
Ã© r
F ac
ĠU T
Ġ3 600
NE ST
Ġinit ially
E asing
h g
p olicies
ist ed
FL G
Ġb attery
][ :
SIGN ATURE
æ¡ Ĩ
æ¨¡ å¼ı
st ash
ĠC ross
ĠP od
html x
min er
j v
Ġne cess
ĠDe precated
Ġ{ (
la de
z t
ol ine
St udy
Ġround ing
s us
x m
Ġfinal ize
ãĥ »
ĊĠĠĠĠĠĠĠĠĠĠĠĠĠĠ ĊĠĠĠĠĠĠĠĠĠĠĠĠĠĠĠ
set Position
Item Id
ĊĠĠĠĠĠĠĠĠĠĠĠĠĠĠĠĠĠĠĠĠĠĠĠĠĠĠĠĠĠĠĠĠĠĠĠĠĠĠĠĠĠĠĠĠĠĠĠĠĠĠĠĠĠĠĠĠ ĠĠĠĠĠĠĠĠĠĠĠĠĠĠĠ
ĊĠĠĠĠĠĠĠĠ ĊĠĠĠĠĠ
Ġd ual
ĠC y
ĠE PI
get Project
Ġr ates
ĠSh are
Measure ment
Ident ifiers
.' "
fra gs
ĠError s
sem antic
} ->{
Ġc redential
add ons
Ġb ss
Ġpre ce
Ġre duction
get View
Ġre cipe
Set Attribute
Ġsub scribe
SK ILL
lb mr
Ġ' `
En counter
ag u
Ġun changed
vi sed
4 25
ĠC ountry
ĠA MP
GE D
å¤ ĩ
ĠG reen
Ġselect ors
ili ary
ĠString s
Regex p
× Ľ
up d
ag a
Replace ment
G rammar
get Version
ent es
Ġ} </
th ink
T EN
Lo ot
% /
b ill
Ġf id
Ġs ms
E LEM
d ropped
Be haviour
Ġc our
BU FF
old english
44 5
ed a
use Summary
sf rs
hib it
E FI
w il
FACT ORY
Ġ3 04
ĠS ENSOR
ri m
æİ¥ åı£
F l
co pied
s lic
x CB
ĠS n
Ġget Instance
000 7
mo ke
md ash
SP L
29 1
59 2
L TR
ĠCh unk
ac m
TH D
font Size
rt nl
Direct ories
ar se
ch allenge
hyper link
E mployee
Ex c
group ing
ĠFORE IGN
i at
bad logic
Mo ved
de termin
ĠP ending
nd s
mode m
s ers
ĠR HS
HO UR
Anim ated
SG IX
Pass phrase
exp iration
ĠDisp ose
e lastic
id en
3 18
n cbi
IT est
Ġcontent Type
Open GL
measure ment
B oth
ĠC ertificate
Ġsub system
ĠIO C
P ot
Ð°Ð ±
Full screen
IF IC
mot or
S AP
de scriptors
=" );
ine se
86 8
ĠÐ± Ñĥ
ĠB P
ĠEx tra
Ġcons umed
åĳ ĺ
not ebook
SP IN
lob ber
Ġin compatibility
ĠW E
VER SE
ĠE F
Scroll bar
Ġt ween
ĊĠĠĠĠ ĊĠĠĠĠĠĠ
con versation
5 16
l if
confirm ation
ri e
File Size
Ġde structor
Ġ7 67
HT MLElement
to ur
DI CT
H UB
str action
oc s
ĠE mbed
root s
æĸ Ń
Ġconfirm ation
() ):
ĠL ike
line Count
ĠShape s
Ġ86 15
m ongo
Test Data
Ġz ones
Tra ffic
áº ¡
RAD IO
D u
ç ¢
or r
Ġp node
Ġs ip
select All
Br and
get Client
IF TYPE
49 6
Ġre commend
Ġ\ /
ï¿½ ï¿½
s j
Ġg nu
çĶŁ æĪĲ
HOR IZONTAL
box ed
~ &
em b
complex Type
MILLI SECONDS
sp lash
( |
et cd
ierarch ical
frame buffer
"] ))
ĠRead s
ĠFIL TER
Ġb ag
TAG S
ĠDec lar
R TOS
desc name
Override s
T bl
Ġ<< <<<<<<<<<<<<
Ġco eff
C ampaign
ĠM agento
78 2
F our
f lix
get Component
å· ±
pla intext
Ġo v
Ġimplement ing
Ġp ivot
Ġre corded
ra quo
Ġde serialized
SI R
require ments
ĠEQU IP
Ġr tn
ĠCOMM ENT
av oid
ik o
ole cule
Ġmark s
IV ED
Ġre act
BT N
monitor ing
am odel
THE ME
ĠL ang
ĠW rap
... ",
38 1
Ġcomplet es
i ment
Ġ× ŀ
launch er
H er
Ġ ONE
al ib
get Repository
K O
p addr
w ap
Ġr k
SD C
á Ł
Un ity
ĠTrans late
PAGE S
Ġprep ared
t it
Z X
Ġd v
add Column
raw l
Volume s
8 20
ĠP refix
style able
OT O
App ender
bg Color
Ġsaved InstanceState
ĠB X
jum bo
B eta
q m
Ġd ense
ab lish
qu a
Ġam ong
EX E
ĠPh p
b rown
Invalid ArgumentException
Ġl ifetime
sc p
54 2
= #
A ngular
F r
w er
get ting
next Int
Ġstd in
get Header
ĠE m
ĠV G
ĠPre vious
ĠFail ure
ĠL ive
ĠMA V
inter polate
Ġ---------------------------------------------------------------- ----
e jb
C W
Ġ ĊĠĠĠĠĠĠĠĠĠĠĠĠ
Ġs ocial
web socket
Ġgroup ed
è¯ Ŀ
z oo
walk er
M es
ĠL in
Ch ance
ar ner
ut m
ĠN AND
ready State
ĠCH IP
Ġg ate
ĠP IX
D s
Table Sub
urren ces
Ato ms
i us
is Required
con g
yst al
Ġqu ite
ĠSc heduler
Execut able
W ell
ç Ī
Ġsh op
ĠSE CTION
Dat as
% ',
x DC
mod ern
person al
WD G
M ALLOC
ĠH A
SP C
// **
ĠMA KE
Ġqu i
M GR
ct ools
Ġjava fx
cycle s
Ġ" ("
Ġtype Name
ĠÃ Ĺ
R ace
Ġ1 00000
Ex plorer
Send Message
ry p
Ġperson al
ĠPart ial
W i
Ġh o
UN DEFINED
å £
ĠCLI ENT
V el
fc ntl
RES SED
E mber
"> ::</
Method Impl
MY SQL
9 60
D ONT
Ġme ant
ĠĠĠĠĠĠĠĠĠĠĠĠĠĠĠĠĠĠĠĠĠĠĠĠĠĠĠĠĠĠĠĠĠĠĠĠĠĠĠĠĠĠĠĠĠĠĠĠĠĠĠĠĠĠĠĠĠĠĠĠĠĠĠĠ ĠĠĠĠĠĠĠĠĠĠĠ
Ġchain ing
ĠS IO
iz ers
8 28
Ġs park
Ġlat itude
/**************************************************************************** **
Ġsuff icient
Ġg d
Ġex pose
und a
ret t
Enum s
ĉĉĉĉĉĉĉĉ ĉ
Tx n
T olerance
Case s
ĠKey Value
IRQ n
ĠOFF SET
SE M
G rade
ĠW ire
UN DER
z f
Ġcre ator
? $
Ġf ocused
que e
Ġx cb
UN ICODE
Ñĸ Ð´
ver ified
no thing
ĊĠĠĠĠĠĠĠĠĠĠĠĠ ĊĠĠĠĠĠĠĠĠĠĠĠĠĊĠĠĠĠĠĠĠĠĠĠĠ
IR C
checker ed
¸ ı
ch roma
Ġfont s
åı °
Tile s
ĠBO OLEAN
Ġse em
page X
DE ATH
ìļ ©
? (:
Ġ` {
PRO TECT
ĠM ichael
Validation Error
ĠL EN
ĠF SMC
EPS G
get Line
Ar mor
src Line
pg d
åĭ ķ
n ginx
Ġre duced
Set String
Ġmost ly
clo ak
Ġn Ã£o
ĠU NU
clo ver
ĠâĢ Ķ
ALIGN ED
hist ogram
un iq
ob servable
No ise
č Ċĉĉĉĉĉĉĉĉĉĉĉĉ
ĠN ested
åŃĺ åľ¨
å¢ ŀ
co t
(' ../../
dig o
ĠREAD ME
H K
Event Emitter
he mer
GLE S
Ġc rate
ĠM er
C aret
O SE
Exp ired
network s
TOOL SET
Ġmultip ly
+ .
: ])
03 00
M AR
get Code
lf ind
ĠW ORD
ĠH I
Ġfilename s
D raft
P AC
P ublished
ĠM II
Collect ors
Ġj int
Ġal g
TH R
Ġtime line
Log out
cache p
Dis card
gc web
Ġhome page
ĠM c
sh aring
Ġf av
ĠSub ject
ĠM issing
Ġ{ <
tr usted
Re play
res id
w ow
=" <
Ġqual ifier
) <<
ĠPipe line
In correct
ad reno
9 44
ĠC X
Ġspec s
Ġsatis fied
Ġdisplay ing
scroll Left
ĠKey board
ĠSU CCESS
c ifs
data store
Spell s
] &
37 1
æŀ Ĳ
E DED
Ġ} ))
ĠS OL
Ġ1 22
Line Edit
éĵ ¾
ĠUNU SED
Ġ" //
iz r
Get ting
aw iki
06 3
pol ator
ĠCla ret
Ġmach ines
Ġt ls
tr acing
x pr
99 3
Ġlong itude
Is Enabled
Ġhel lo
åı ¤
à¸ ĩ
8 80
L ARGE
ph ra
Ġfront end
Ġn bytes
ide os
/* ========================================================================
RE M
Ġpro ve
Bu dget
p node
Ġref ers
Ne eds
p nt
w ps
un supported
Inter section
Non ce
Sel fer
C orp
o ken
pr g
ge ar
åŃĹç¬¦ ä¸²
M d
Object Id
C ookies
get SimpleName
In noDB
IC LE
40 96
49 0
Ġcache s
Par cel
Ġframe border
ĠF ront
(@ "
]{ '
Ġ[ ]);
ĠIn line
Ġv it
Access Type
Ġw f
red ux
Ġvalid ated
Ġpl ural
ter raform
mo ver
ĠK ubernetes
Ġnet if
ĠUN KNOWN
er ver
get Long
Ġsupport ing
Option Pane
; *
oc am
Of Week
exp ired
ìĸ ´
* $
C amel
Ġf etched
curs ion
PREFER RED
Ġb x
ra x
ĠD ispatch
ĠB attle
åĢ ĭ
Ġtun nel
pp le
Ġdis connected
PAR SER
ĠTra it
f imc
RE SUME
curr Pos
Ġmultip lier
Contain ing
éĶ ®
Front end
Ġaccur ate
L orem
Ġpro d
Ġstr ipe
èĩª å·±
æµ ģ
H s
page Y
Float ing
HEADER S
Ġ ....
ĠLo ader
Con struction
Add ing
ex periment
aw ay
ade s
ĠOB J
Ġli bc
Qu aternion
Line String
Ġin complete
es is
f lood
ĠPer ipheral
B ed
U FF
MI SS
ĠAs set
Ġrecent ly
mk specs
Ġart ist
STAR TED
Data Stream
Int el
To Lower
); ">
Ġw ent
Ġpro t
Ġal ive
MP S
ĠM Hz
fin ally
Ġmethod Name
à® ķ
ĠNum eric
Y ii
46 7
Ġeps ilon
al chemy
que s
SM TP
Ġvolume s
B H
V REG
Ġs anity
ĠB oth
åį ³
tag ged
PROPER TIES
0000 0200
Ġà¦ ª
r mt
select able
me te
ter a
ĠO CI
pp l
>> ();
Ġcom ing
ient o
st ime
Ġd ashboard
im en
ĠE A
'> "
ĠU A
Config File
ĠRel ation
FRONT END
Ġno translate
Ġbit mask
M otor
iter ations
Ġtransition s
Ġbegin s
Ġcp umask
B ullet
ĠCRYP TO
op ens
ĠI BUS
SHAD OW
ĠD oxygen
Ġhint s
is is
lo v
Text ures
ubl ereal
rep l
Ġ12 34
LIB TOOL
der ive
89 8
{ #
EN ER
eb a
Access Exception
B m
Ch ip
Ð°Ð ³
sprit es
e led
56 3
orph an
Ġ erts
ĠD WC
include d
VOLT AGE
ĠE lasticsearch
Ġsup posed
M IB
W MI
SR AM
Ċĉĉĉĉĉĉ ĠĠĠĠ
SQL ite
Normal ize
order by
DO S
DB L
Ġmin us
Cancel led
Ġ' ('
Ġj object
Reg istr
limit ations
Ġi k
BE FORE
ĠSource s
6 01
G data
o enix
rep resent
ĠMB EDTLS
N AT
PER CENT
4 75
79 8
Ġm ind
ome ga
Â¡ Â£
CONT INUE
querySelector All
Ġpress ure
fe cha
White Space
06 9
89 7
Ġ× ĳ
SH IP
aut os
inv ite
in ge
D ue
Bu y
w icket
z lib
on or
cy an
è¿ °
car ded
ĠOp code
i ssion
pro ya
Ø± Ø§
gdb arch
ĠEx plorer
Ġ'/ ',
let able
Ġav ailability
d an
short name
E GR
ad ir
ind irect
u ator
In i
ay out
FI O
CL ICK
Â· Â·
åĽ¾ çīĩ
G GLE
ĠO ID
ÑĢÐ°Ð ·
ĠT CG
RD ONLY
( ~
SE LECTION
My SQL
F action
Ġi a
ĠE ric
cl ub
Ag g
Ġo bs
Ġiter able
nof ollow
Ġb ring
Import er
get Revision
OC aml
ĠSelect or
Ġmonitor ing
in box
Co eff
ç»ĵ æŀľ
4 14
P LE
4 16
F TP
ent a
Ġh ls
Web site
a utomatic
Ġtop ics
Ġmiddle ware
ĠC orre
ĠO ur
Ġcom o
ĠAL T
place s
bon us
spe ech
J UMP
P ts
è ĳ
re nd
Spec s
WAKE UP
x BE
=" "></
Tr usted
24 10
ateg ies
k ern
reser vation
VERT ICAL
) __
//---------------------------------------------------------------- --------------
Occ urred
he t
ĠC am
TRAN SACTION
Ġf o
Ġs anitize
tr ial
pre load
(', ',
tool kit
full name
J J
Activ ated
K C
Writ ing
." \
Ġ} )(
get Url
d aily
k ie
ĠJ NI
Month s
er as
de mand
Ġ1 32
rap pe
DEC IMAL
J Unit
ar is
Ġx frm
ĠCon version
switch er
google code
A ba
ãĥ Ĳ
Ġrep lay
ALL SPHINXOPTS
ĠSM ART
ĠSOCK S
g ab
s av
on Create
Ġ{ //
ĠT I
comp osed
ask ell
W IFI
att ice
ĠME SSAGE
Ġ' ['
get Description
Language s
36 1
a q
CO E
Ġoff icial
LOW ER
Report Field
ĠH R
} };
Ġ1 95
U nb
end swith
EX PI
Ġest e
dat ap
e core
in out
ĠTh omas
Full Screen
toHave Been
ĉĉ Ċ
ĠC ulture
IN Y
Ġdis cussion
Reser vation
S LO
ĠE lf
ĠIn ner
create Class
77 0
App Compat
provide d
coverage Count
/ ";
ol s
W ar
Ġport al
num s
ĠĠĠĠĠĠĠĠ ĊĠĠĠĠĠĠĠ
Ġv en
åĲį ç§°
> {%
íķ ´
emo ji
=" $(
ĠQ Name
ĠâĶ Ĥ
ot ify
IC ATE
Ġevent Name
frame d
Ðµ Ñģ
LIN ES
termin ated
ĠQ Rect
ba ud
plot lib
K IND
ut ures
scal able
R ATION
got iation
irc um
B ATT
Ġtri ed
čĊčĊ čĊ
Web API
Ignore d
* "
ĠC ancellationToken
'] }
à® ¿
dot s
Priv acy
pt ype
ĠBlock ly
ĠÐ² Ñĭ
æ ĩ
Ġend Colorstr
TableSub HeadingColor
at tempts
Ġcon trib
td ata
Ġbe acon
Class ification
Ġ========= ===
a ight
be b
Ġmembers hip
çĦ ¡
Ke eper
Ġdisp ose
Ġinject ed
To File
co vers
ON D
Ġdir s
Post s
ĠHe ight
PAY LOAD
get Document
Ġgr ub
ĠM PL
dis count
Ġem itter
pub key
dispatch Event
Ġ čĊč
UN IFORM
L ibraries
tr averse
ĠDes er
set Parameter
Ġst ory
Ġin fer
date Time
SH UTDOWN
Ġ?> >
ort ure
Ġfunction al
read Only
66 3
round ing
Dump er
Ġpie ces
or um
ĠIn finity
ĠWeb Kit
t as
Ġc ircular
ic an
Ġo g
Ġab sl
Ġad j
In bound
ĠT M
fo g
ĠF riend
ĠG em
ĊĠĠĠĠĠĠĠĠĠĠĠĠ ĊĠĠĠĠĠĠĠĠĠĠĠĠĠ
find utils
áĢ Ļ
ĠPRO PER
ìŀ Ĳ
b gp
Type Symbol
sh oot
Event Target
led ge
bound ing
c grp
g k
ON ES
EN CODE
éĸ ĭ
st ree
co a
ĠSt ates
M SP
Ġis csi
Ġal le
D SC
h en
td own
68 5
CRE ATED
mapping s
x CF
Le ast
U tc
.. "><
Ġ% [
Ġal most
09 5
CONTROL LER
c losing
Ġt gt
Ġex ceed
nd im
Folder s
aff ected
Ġonkey down
Ġ áĥ
IC AST
([ ],
ĠJSON RPC
y i
="../../../../ .."><
Dat atype
C WE
f abs
h list
ĠDO C
ĠPER F
js x
con struction
Ġan alog
Ġ` ,
H op
der ived
ph er
ill er
ĠQ Color
End Of
ĠCA CHE
G BE
ĠV S
sd hci
g dk
:: $_
ri b
Response s
pref etch
Walk er
{- #
screen shot
ĠAcc um
åĳ Ĭ
at las
ĠL WIP
Ġcon versions
Char Code
('/ ',
Mark ers
Private Key
pix map
get Param
Ġ1 29
remove Attr
l te
CR S
course id
E poch
S FR
Ġ{ ...
u ap
if ts
ec m
ĠQ EMU
Ġz h
[...]
